{
  "version": "1.0",
  "truncation": null,
  "padding": null,
  "added_tokens": [
    {
      "id": 0,
      "content": "<|endoftext|>",
      "single_word": false,
      "lstrip": false,
      "rstrip": false,
      "normalized": false,
      "special": true
    },
    {
      "id": 1,
      "content": "<|unk|>",
      "single_word": false,
      "lstrip": false,
      "rstrip": false,
      "normalized": false,
      "special": true
    }
  ],
  "normalizer": null,
  "pre_tokenizer": {
    "type": "ByteLevel",
    "add_prefix_space": false,
    "trim_offsets": true,
    "use_regex": true
  },
  "post_processor": null,
  "decoder": null,
  "model": {
    "type": "BPE",
    "dropout": null,
    "unk_token": "<|unk|>",
    "continuing_subword_prefix": null,
    "end_of_word_suffix": null,
    "fuse_unk": false,
    "byte_fallback": false,
    "ignore_merges": false,
    "vocab": {
      "<|endoftext|>": 0,
      "<|unk|>": 1,
      "!": 2,
      "\"": 3,
      "#": 4,
      "$": 5,
      "&": 6,
      "'": 7,
      "(": 8,
      ")": 9,
      "*": 10,
      "+": 11,
      ",": 12,
      "-": 13,
      ".": 14,
      "/": 15,
      "0": 16,
      "1": 17,
      "2": 18,
      "3": 19,
      "4": 20,
      "5": 21,
      "6": 22,
      "7": 23,
      "8": 24,
      "9": 25,
      ":": 26,
      ";": 27,
      "<": 28,
      ">": 29,
      "?": 30,
      "A": 31,
      "B": 32,
      "C": 33,
      "D": 34,
      "E": 35,
      "F": 36,
      "G": 37,
      "H": 38,
      "I": 39,
      "J": 40,
      "K": 41,
      "L": 42,
      "M": 43,
      "N": 44,
      "O": 45,
      "P": 46,
      "Q": 47,
      "R": 48,
      "S": 49,
      "T": 50,
      "U": 51,
      "V": 52,
      "W": 53,
      "X": 54,
      "Y": 55,
      "Z": 56,
      "]": 57,
      "_": 58,
      "`": 59,
      "a": 60,
      "b": 61,
      "c": 62,
      "d": 63,
      "e": 64,
      "f": 65,
      "g": 66,
      "h": 67,
      "i": 68,
      "j": 69,
      "k": 70,
      "l": 71,
      "m": 72,
      "n": 73,
      "o": 74,
      "p": 75,
      "q": 76,
      "r": 77,
      "s": 78,
      "t": 79,
      "u": 80,
      "v": 81,
      "w": 82,
      "x": 83,
      "y": 84,
      "z": 85,
      "|": 86,
      "~": 87,
      "¡": 88,
      "¦": 89,
      "©": 90,
      "«": 91,
      "±": 92,
      "³": 93,
      "´": 94,
      "¶": 95,
      "»": 96,
      "Â": 97,
      "Ã": 98,
      "â": 99,
      "ð": 100,
      "ĉ": 101,
      "Ċ": 102,
      "Ġ": 103,
      "Ģ": 104,
      "ī": 105,
      "Ĭ": 106,
      "ĭ": 107,
      "İ": 108,
      "ĵ": 109,
      "Ķ": 110,
      "ķ": 111,
      "ĺ": 112,
      "Ļ": 113,
      "ľ": 114,
      "Ŀ": 115,
      "Ł": 116,
      "ł": 117,
      "Ń": 118,
      "he": 119,
      "Ġt": 120,
      "Ġa": 121,
      "Ġs": 122,
      "nd": 123,
      "Ġw": 124,
      "Ġthe": 125,
      "ed": 126,
      "Ġand": 127,
      "Ġto": 128,
      "Ġb": 129,
      "in": 130,
      "Ġh": 131,
      "Ġwa": 132,
      "re": 133,
      "Ġf": 134,
      "ou": 135,
      "it": 136,
      "Ġl": 137,
      "Ġc": 138,
      "er": 139,
      "Ġhe": 140,
      "Ġd": 141,
      "Ġwas": 142,
      "Ġm": 143,
      "Ġp": 144,
      "om": 145,
      "ĠT": 146,
      "Ġo": 147,
      "ay": 148,
      "ar": 149,
      "ing": 150,
      "is": 151,
      "Ġg": 152,
      "il": 153,
      "id": 154,
      "at": 155,
      "en": 156,
      "Ġn": 157,
      "Ġsa": 158,
      "Ġha": 159,
      "ĠS": 160,
      "ĠThe": 161,
      "an": 162,
      "im": 163,
      "or": 164,
      "on": 165,
      "Ġit": 166,
      "Ġth": 167,
      "ll": 168,
      "le": 169,
      "ĠH": 170,
      "Ġher": 171,
      "et": 172,
      "ot": 173,
      "ir": 174,
      "ĠShe": 175,
      "end": 176,
      "ĠHe": 177,
      "es": 178,
      "ver": 179,
      "Ġin": 180,
      "ut": 181,
      "ow": 182,
      "ck": 183,
      "Ġu": 184,
      "ld": 185,
      "ĠThey": 186,
      "oo": 187,
      "ex": 188,
      "ig": 189,
      "Ġy": 190,
      "Ġsaid": 191,
      "Ġr": 192,
      "Ġbe": 193,
      "am": 194,
      "ily": 195,
      "Ġst": 196,
      "ce": 197,
      "Ġshe": 198,
      "Ġ\"": 199,
      "pp": 200,
      "ke": 201,
      "ĠI": 202,
      "ith": 203,
      "ve": 204,
      "On": 205,
      "Ġwith": 206,
      "Ġof": 207,
      "Ġon": 208,
      "Lily": 209,
      "Ġso": 210,
      "ked": 211,
      "ri": 212,
      "Ġhis": 213,
      "ft": 214,
      "very": 215,
      "nt": 216,
      "Ġpl": 217,
      "ad": 218,
      "Ġyou": 219,
      "Ġday": 220,
      "Ġthat": 221,
      "Ġup": 222,
      "Ġhad": 223,
      "el": 224,
      "st": 225,
      "Ġplay": 226,
      "ext": 227,
      "Ġthey": 228,
      "ĠLily": 229,
      "Ġe": 230,
      "Ġmom": 231,
      "Ġfor": 232,
      "Ġwe": 233,
      "ould": 234,
      "my": 235,
      "un": 236,
      "oft": 237,
      "<|": 238,
      "|>": 239,
      "endoft": 240,
      "endoftext": 241,
      "ĠB": 242,
      "The": 243,
      "'s": 244,
      "ent": 245,
      "Ġhapp": 246,
      "itt": 247,
      "ch": 248,
      "Ġli": 249,
      "Ġwant": 250,
      "out": 251,
      "her": 252,
      "Ġsh": 253,
      "ly": 254,
      "ĠĊ": 255,
      "ound": 256,
      "ime": 257,
      "Ġvery": 258,
      "ittle": 259,
      "ome": 260,
      "se": 261,
      "all": 262,
      "Ġtime": 263,
      "Ġlittle": 264,
      "Ġwh": 265,
      "Ġthere": 266,
      "Ġdo": 267,
      "Ġnot": 268,
      "Ġk": 269,
      "al": 270,
      "ht": 271,
      "Ġre": 272,
      "Ġhappy": 273,
      "Ġbig": 274,
      "ĠM": 275,
      "Ġsm": 276,
      "Ġbut": 277,
      "ĠIt": 278,
      "ack": 279,
      "Ġsaw": 280,
      "Ġan": 281,
      "riend": 282,
      "Ġfriend": 283,
      "ra": 284,
      "Ġas": 285,
      "Ġis": 286,
      "Ġne": 287,
      "ry": 288,
      "One": 289,
      "ide": 290,
      ".\"": 291,
      "'t": 292,
      "ake": 293,
      "ved": 294,
      "Once": 295,
      "ug": 296,
      "Ġloo": 297,
      "Ġwere": 298,
      "ec": 299,
      "ore": 300,
      "Ġlo": 301,
      "!\"": 302,
      "Ġhim": 303,
      "Ġbo": 304,
      "Ġtoo": 305,
      "irl": 306,
      "Ġgo": 307,
      "ĠTim": 308,
      "Ġupon": 309,
      "Ġgirl": 310,
      "Ġse": 311,
      "Ġwanted": 312,
      "Ġj": 313,
      "ard": 314,
      "Ġout": 315,
      "ill": 316,
      "Ġsp": 317,
      "way": 318,
      "fu": 319,
      "Ġcould": 320,
      "Ġat": 321,
      "Ġthem": 322,
      "ind": 323,
      "ur": 324,
      "hen": 325,
      "Ġare": 326,
      "ĠA": 327,
      "Ġdid": 328,
      "Ġsmil": 329,
      "Ġtheir": 330,
      "ain": 331,
      "art": 332,
      "hed": 333,
      "Ġex": 334,
      "Ġwent": 335,
      "Ġar": 336,
      "rom": 337,
      "Ġhave": 338,
      "ter": 339,
      "ic": 340,
      "ĠJ": 341,
      "Ġall": 342,
      "hing": 343,
      "ful": 344,
      "Ġnam": 345,
      "lp": 346,
      "ight": 347,
      "Ġfriends": 348,
      "Ġkn": 349,
      "ood": 350,
      "Ġhelp": 351,
      "Ġcan": 352,
      "um": 353,
      "one": 354,
      "ark": 355,
      "Ġback": 356,
      "?\"": 357,
      "Ġcl": 358,
      "ĠBen": 359,
      "Ġfun": 360,
      "are": 361,
      "Ġle": 362,
      "Ġnamed": 363,
      "Ġno": 364,
      "Ġloved": 365,
      "oug": 366,
      "Ġal": 367,
      "Ġsc": 368,
      "ĠOne": 369,
      "elt": 370,
      "side": 371,
      "op": 372,
      "ĠTom": 373,
      "Ġsay": 374,
      "You": 375,
      "Ġsmiled": 376,
      "Ġfelt": 377,
      "ick": 378,
      "Ġman": 379,
      "Ġaround": 380,
      "ĠTimmy": 381,
      "Ġasked": 382,
      "Ġfe": 383,
      "ame": 384,
      "Ġtoy": 385,
      "Ġlooked": 386,
      "omet": 387,
      "ure": 388,
      "Ġlike": 389,
      "Ġwould": 390,
      "Ġsome": 391,
      "Ġboy": 392,
      "Ġsee": 393,
      "Ġro": 394,
      "get": 395,
      "Ġbr": 396,
      "Ġbir": 397,
      "Ġstart": 398,
      "ĠW": 399,
      "Ġme": 400,
      "ong": 401,
      "ice": 402,
      "ss": 403,
      "Ġsomet": 404,
      "Ġbird": 405,
      "ade": 406,
      "Ġag": 407,
      "Ġfa": 408,
      "Ġwor": 409,
      "dd": 410,
      "king": 411,
      "ings": 412,
      "Ġwhat": 413,
      "Ġtre": 414,
      "gether": 415,
      "âĢ": 416,
      "own": 417,
      "Ġaway": 418,
      "Ġstarted": 419,
      "Ġmake": 420,
      "ie": 421,
      "ĠBut": 422,
      "Ġran": 423,
      "ared": 424,
      "ag": 425,
      "oud": 426,
      "Ġmade": 427,
      "Ġsomething": 428,
      "ited": 429,
      "Ġtogether": 430,
      ",\"": 431,
      "Ġco": 432,
      "Ġpark": 433,
      "Ġexc": 434,
      "ther": 435,
      "Ġsad": 436,
      "Ġcar": 437,
      "Ġput": 438,
      "ĠYou": 439,
      "Ġfrom": 440,
      "ble": 441,
      "Ġother": 442,
      "Ġnew": 443,
      "Ġpr": 444,
      "Ġhome": 445,
      "Ġla": 446,
      "Ġmu": 447,
      "Ġagain": 448,
      "Ġwhen": 449,
      "Ġsays": 450,
      "Ġthen": 451,
      "Ġdec": 452,
      "Ġwho": 453,
      "Ġhug": 454,
      "ell": 455,
      "if": 456,
      "Ġfound": 457,
      "ep": 458,
      "est": 459,
      "ried": 460,
      "ĠL": 461,
      "ach": 462,
      "pped": 463,
      "Ġch": 464,
      "Ġgood": 465,
      "ĠE": 466,
      "Ġfl": 467,
      "ook": 468,
      "as": 469,
      "Ġwal": 470,
      "qu": 471,
      "Ġget": 472,
      "ally": 473,
      "ought": 474,
      "Ġplaying": 475,
      "pl": 476,
      "Ġexcited": 477,
      "Ġsw": 478,
      "Ġgot": 479,
      "Ġthings": 480,
      "hat": 481,
      "ous": 482,
      "ided": 483,
      "Ġdecided": 484,
      "Ġevery": 485,
      "uck": 486,
      "Ġcame": 487,
      "ro": 488,
      "ave": 489,
      "Ġliked": 490,
      "ny": 491,
      "ax": 492,
      "Ġbec": 493,
      "Ġv": 494,
      "Ġbl": 495,
      "Ġone": 496,
      "Ġdown": 497,
      "Ġscared": 498,
      "ouse": 499,
      "ust": 500,
      "Ġfind": 501,
      "Ġthan": 502,
      "Ġcare": 503,
      "udd": 504,
      "Ġfeel": 505,
      "ĠD": 506,
      "ist": 507,
      "na": 508,
      "Ġyour": 509,
      "ara": 510,
      "ways": 511,
      "Ġab": 512,
      "Ġke": 513,
      "Ġdog": 514,
      "Ġdad": 515,
      "Ġdidn": 516,
      "Ġalways": 517,
      "ĠMom": 518,
      "Ġgra": 519,
      "ue": 520,
      "Ġgr": 521,
      "ap": 522,
      "Ġmommy": 523,
      "fe": 524,
      "arn": 525,
      "ĠF": 526,
      "us": 527,
      "Ġkne": 528,
      "Ġlot": 529,
      "Ġtook": 530,
      "ant": 531,
      "our": 532,
      "ess": 533,
      "Ġabout": 534,
      "nder": 535,
      "eci": 536,
      "Ġoutside": 537,
      "Ġpo": 538,
      "ers": 539,
      "bb": 540,
      "Ġmy": 541,
      "Ġtree": 542,
      "Ġlook": 543,
      "ched": 544,
      "They": 545,
      "Ġthought": 546,
      "ened": 547,
      "ise": 548,
      "Ġwill": 549,
      "ite": 550,
      "nna": 551,
      "Ġtoys": 552,
      "Ġball": 553,
      "Ġint": 554,
      "ecial": 555,
      "Ġold": 556,
      "Ġspecial": 557,
      "ĠSam": 558,
      "Ġta": 559,
      "Ġmore": 560,
      "Ġlearn": 561,
      "Ġknew": 562,
      "ret": 563,
      "Ġho": 564,
      "Ġknow": 565,
      "Ġtake": 566,
      "udden": 567,
      "ged": 568,
      "Ġlaug": 569,
      "fter": 570,
      "ĠMax": 571,
      "Ġpe": 572,
      "Ġcat": 573,
      "ive": 574,
      "uddenly": 575,
      "Ġany": 576,
      "Ġhow": 577,
      "au": 578,
      "Ġtr": 579,
      "ma": 580,
      "Ġmuch": 581,
      "Ġshow": 582,
      "Ġsor": 583,
      "ia": 584,
      "Ġtw": 585,
      "ven": 586,
      "ish": 587,
      "Ġhouse": 588,
      "Ġsl": 589,
      "Ġsk": 590,
      "and": 591,
      "ink": 592,
      "But": 593,
      "Ġmo": 594,
      "ĠEvery": 595,
      "Ġrun": 596,
      "Ġinto": 597,
      "Ġsun": 598,
      "Ġop": 599,
      "Ġcouldn": 600,
      "Ġtried": 601,
      "Ġclo": 602,
      "Ġinside": 603,
      "Ġhand": 604,
      "Ġtold": 605,
      "Ġen": 606,
      "Ġproud": 607,
      "Ġnever": 608,
      "Ġqu": 609,
      "Ġgave": 610,
      "Ġover": 611,
      "Ġwater": 612,
      "ause": 613,
      "ump": 614,
      "ate": 615,
      "Ġsorry": 616,
      "Ġor": 617,
      "Ġif": 618,
      "Ġexpl": 619,
      "by": 620,
      "Ġeat": 621,
      "ace": 622,
      "other": 623,
      "Ġheard": 624,
      "ank": 625,
      "ty": 626,
      "ion": 627,
      "dy": 628,
      "ge": 629,
      "Ġplayed": 630,
      "etter": 631,
      "Ġthis": 632,
      "Ġroom": 633,
      "Ġpick": 634,
      "Ġbecause": 635,
      "Ġgre": 636,
      "Ġstr": 637,
      "Ġeach": 638,
      "here": 639,
      "Ġjust": 640,
      "ĠSara": 641,
      "Ġpret": 642,
      "Ġcom": 643,
      "Ġwat": 644,
      "Ġoff": 645,
      "oth": 646,
      "ile": 647,
      "ak": 648,
      "Ġhugged": 649,
      "ĠWe": 650,
      "Tom": 651,
      "Ġbox": 652,
      "Ġneed": 653,
      "iz": 654,
      "Ġlong": 655,
      "Ġsmall": 656,
      "Ġjo": 657,
      "Ġbu": 658,
      "Ġunt": 659,
      "Ġnice": 660,
      "ough": 661,
      "ort": 662,
      "Mom": 663,
      "Ġuntil": 664,
      "Ġbear": 665,
      "uc": 666,
      "ĠAnna": 667,
      "ving": 668,
      "Ġfo": 669,
      "Ġmany": 670,
      "sel": 671,
      "ĠJack": 672,
      "ine": 673,
      "imal": 674,
      "Ġanimal": 675,
      "Ġtry": 676,
      "ild": 677,
      "sed": 678,
      "Ġlearned": 679,
      "'m": 680,
      "Ġend": 681,
      "Ġbetter": 682,
      "gry": 683,
      "Ġim": 684,
      "Ġkind": 685,
      "em": 686,
      "Ġad": 687,
      "Ġcall": 688,
      "vent": 689,
      "urt": 690,
      "aut": 691,
      "ĠJo": 692,
      "ĠSo": 693,
      "pt": 694,
      "Ġflow": 695,
      "Ġdre": 696,
      "He": 697,
      "ull": 698,
      "Ġcle": 699,
      "urn": 700,
      "ber": 701,
      "Ġbest": 702,
      "ady": 703,
      "Ġlove": 704,
      "ars": 705,
      "Ġeven": 706,
      "Ġbeaut": 707,
      "Ġthanked": 708,
      "Ġsky": 709,
      "urp": 710,
      "Ġbra": 711,
      "arden": 712,
      "Ġgarden": 713,
      "lly": 714,
      "Ġsn": 715,
      "ĠHer": 716,
      "ĠAnd": 717,
      "Ġfast": 718,
      "self": 719,
      "Ġlots": 720,
      "Ġlaughed": 721,
      "Ġby": 722,
      "ves": 723,
      "Ġcareful": 724,
      "Ġche": 725,
      "Ġfi": 726,
      "Ġfam": 727,
      "lew": 728,
      "Ġjump": 729,
      "Ġbeauti": 730,
      "Ġdon": 731,
      "iny": 732,
      "ĠMia": 733,
      "Ġway": 734,
      "Ġloud": 735,
      "wn": 736,
      "Ġbeautiful": 737,
      "Yes": 738,
      "ies": 739,
      "ĠC": 740,
      "Ġgl": 741,
      "ĠFrom": 742,
      "hn": 743,
      "ĠThen": 744,
      "Ġte": 745,
      "âĢĿ": 746,
      "Ġstill": 747,
      "Ġra": 748,
      "Th": 749,
      "âĢľ": 750,
      "Ġhard": 751,
      "Ġwo": 752,
      "Ġcome": 753,
      "Ġlist": 754,
      "ase": 755,
      "Ġstay": 756,
      "Ġanimals": 757,
      "ĠHis": 758,
      "ect": 759,
      "ning": 760,
      "It": 761,
      "Ġsafe": 762,
      "Ġhurt": 763,
      "Ġunder": 764,
      "Ġrem": 765,
      "ast": 766,
      "Ġcol": 767,
      "ct": 768,
      "Ġlived": 769,
      "Ġboth": 770,
      "ane": 771,
      "Ġtwo": 772,
      "hes": 773,
      "ree": 774,
      "Ġfamily": 775,
      "Ġcu": 776,
      "ool": 777,
      "Ġbrave": 778,
      "ople": 779,
      "Ġimp": 780,
      "Ġfin": 781,
      "When": 782,
      "Ġits": 783,
      "ob": 784,
      "Ġlet": 785,
      "Ġflew": 786,
      "Ġkept": 787,
      "ished": 788,
      "Ġbad": 789,
      "ucy": 790,
      "urpr": 791,
      "Tim": 792,
      "igh": 793,
      "Ġwalked": 794,
      "Ġpeople": 795,
      "Ġstor": 796,
      "Ġsurpr": 797,
      "ĠWhen": 798,
      "Ġcalled": 799,
      "fore": 800,
      "Ġsoon": 801,
      "led": 802,
      "Ġfore": 803,
      "Ġbook": 804,
      "Ġdan": 805,
      "be": 806,
      "Ġred": 807,
      "Ġfly": 808,
      "kay": 809,
      "Ġshould": 810,
      "ĠâĢľ": 811,
      "ock": 812,
      "ised": 813,
      "Ġrock": 814,
      "Ġpic": 815,
      "Ġgoing": 816,
      "Ġadvent": 817,
      "Ġclean": 818,
      "ĠP": 819,
      "Ġangry": 820,
      "Ġshare": 821,
      "ummy": 822,
      "illy": 823,
      "Ġexplore": 824,
      "Ġopened": 825,
      "Ġbefore": 826,
      "Ġkeep": 827,
      "ip": 828,
      "Let": 829,
      "Ġcon": 830,
      "Ġnow": 831,
      "Ġpretty": 832,
      "No": 833,
      "Ġcre": 834,
      "Ġsto": 835,
      "Ġdoor": 836,
      "Ġwind": 837,
      "age": 838,
      "Ġreal": 839,
      "Ġground": 840,
      "ary": 841,
      "Ġdoll": 842,
      "Ġshiny": 843,
      "Ġide": 844,
      "Ġdra": 845,
      "Ġnoise": 846,
      "Ġfeeling": 847,
      "ied": 848,
      "Ġfr": 849,
      "Ġfar": 850,
      "Ġcry": 851,
      "dded": 852,
      "Ġturn": 853,
      "Ġey": 854,
      "oon": 855,
      "Ġwar": 856,
      "oy": 857,
      "Ġidea": 858,
      "thing": 859,
      "Ġcolor": 860,
      "Ġpicked": 861,
      "th": 862,
      "Ġnext": 863,
      "Ġun": 864,
      "Ġwalking": 865,
      "les": 866,
      "Ġwhile": 867,
      "ĠLucy": 868,
      "Ġthr": 869,
      "âĢĻ": 870,
      "imb": 871,
      "Ġadventure": 872,
      "ture": 873,
      "so": 874,
      "Ġma": 875,
      "Ġsmile": 876,
      "iced": 877,
      "Ġclimb": 878,
      "Ġbed": 879,
      "uch": 880,
      "Ben": 881,
      "Ġalso": 882,
      "ious": 883,
      "ger": 884,
      "What": 885,
      "eet": 886,
      "That": 887,
      "joy": 888,
      "ff": 889,
      "Ġbeing": 890,
      "Ġwr": 891,
      "Ġlooking": 892,
      "ac": 893,
      "Ġstopped": 894,
      "Ġdel": 895,
      "Ġclos": 896,
      "Ġdif": 897,
      "ember": 898,
      "Ġnodded": 899,
      "ting": 900,
      "Ġfood": 901,
      "ĠSuddenly": 902,
      "Ġpicture": 903,
      "Ġgive": 904,
      "ĠDad": 905,
      "ught": 906,
      "Ġwait": 907,
      "kes": 908,
      "Ġquick": 909,
      "Ġenjoy": 910,
      "Ġeyes": 911,
      "Ġever": 912,
      "Ġown": 913,
      "Ġgreat": 914,
      "Ġhas": 915,
      "Ġtruck": 916,
      "Ġnoticed": 917,
      "Ġafter": 918,
      "Ġgi": 919,
      "ĠG": 920,
      "maz": 921,
      "able": 922,
      "Ġamaz": 923,
      "Suddenly": 924,
      "ized": 925,
      "Thank": 926,
      "Ġremember": 927,
      "Ġwalk": 928,
      "Ġrain": 929,
      "Ġbre": 930,
      "Ġrepl": 931,
      "Ġforest": 932,
      "Ġdis": 933,
      "Ġlisten": 934,
      "Ġtow": 935,
      "Ġeveryone": 936,
      "Ġthink": 937,
      "aybe": 938,
      "Ġfish": 939,
      "Ġvo": 940,
      "Ġwonder": 941,
      "ĠSp": 942,
      "Ġapp": 943,
      "Ġblue": 944,
      "Ġimport": 945,
      "ted": 946,
      "gan": 947,
      "Ġbro": 948,
      "irst": 949,
      "Ġshowed": 950,
      "Ġnear": 951,
      "Ġhands": 952,
      "Ġac": 953,
      "bbit": 954,
      "Ġflowers": 955,
      "Ġstrong": 956,
      "Ġde": 957,
      "Ġwork": 958,
      "She": 959,
      "Ġbright": 960,
      "Ġimportant": 961,
      "Ġslide": 962,
      "Ġquickly": 963,
      "bbed": 964,
      "bye": 965,
      "Ġwatch": 966,
      "Ġshout": 967,
      "Ġrabbit": 968,
      "Ġright": 969,
      "Ġreplied": 970,
      "llow": 971,
      "Ġwatched": 972,
      "Ġhead": 973,
      "fere": 974,
      "Ġsound": 975,
      "Ġsure": 976,
      "Ġdiffere": 977,
      "Ġye": 978,
      "Ġtal": 979,
      "Ġstore": 980,
      "day": 981,
      "Ġsqu": 982,
      "So": 983,
      "ered": 984,
      "Ġplace": 985,
      "Ġmor": 986,
      "Ġus": 987,
      "Ġboat": 988,
      "Ġbeen": 989,
      "Ġmean": 990,
      "Ġwhere": 991,
      "Ġuse": 992,
      "Ġbecame": 993,
      "ĠBob": 994,
      "ange": 995,
      "ath": 996,
      "Ġdress": 997,
      "Ġtra": 998,
      "Ġokay": 999,
      "Ġstick": 1000,
      "Ġfollow": 1001,
      "Ġgoodbye": 1002,
      "Ġchild": 1003,
      "ng": 1004,
      "Ġcloser": 1005,
      "Ġyell": 1006,
      "lease": 1007,
      "ĠN": 1008,
      "Ġdifferent": 1009,
      "Ġwarm": 1010,
      "Ġhigh": 1011,
      "Ġmag": 1012,
      "Ġask": 1013,
      "Ġface": 1014,
      "Ġcuri": 1015,
      "aught": 1016,
      "Ġvoice": 1017,
      "We": 1018,
      "co": 1019,
      "Ġnight": 1020,
      "ached": 1021,
      "ĠSpot": 1022,
      "ĠR": 1023,
      "ired": 1024,
      "Ġforg": 1025,
      "Ġbel": 1026,
      "Jo": 1027,
      "Ġcr": 1028,
      "leep": 1029,
      "ĠSue": 1030,
      "Ġhop": 1031,
      "ĠMommy": 1032,
      "Ġpa": 1033,
      "ount": 1034,
      "Ġour": 1035,
      "Ġcurious": 1036,
      "Ġpu": 1037,
      "Ġthree": 1038,
      "Ġtell": 1039,
      "more": 1040,
      "Ġanymore": 1041,
      "Ġfav": 1042,
      "Ġcook": 1043,
      "Ġcake": 1044,
      "ĠJohn": 1045,
      "Ġgrabbed": 1046,
      "Ġcont": 1047,
      "itc": 1048,
      "Ġbutter": 1049,
      "Ġdoes": 1050,
      "ndma": 1051,
      "Look": 1052,
      "Ġopen": 1053,
      "Ġfirst": 1054,
      "Her": 1055,
      "Ġper": 1056,
      "Ġz": 1057,
      "Ġbit": 1058,
      "Ġam": 1059,
      "Ġpain": 1060,
      "Sara": 1061,
      "Ġhelped": 1062,
      "Ġlea": 1063,
      "imes": 1064,
      "Anna": 1065,
      "orn": 1066,
      "Ġbus": 1067,
      "unny": 1068,
      "Ġpull": 1069,
      "Ġba": 1070,
      "ĠEveryone": 1071,
      "ĠJane": 1072,
      "After": 1073,
      "Ġbirds": 1074,
      "isy": 1075,
      "Ġfell": 1076,
      "Ġjumped": 1077,
      "ĠTh": 1078,
      "Ġsweet": 1079,
      "Ġkid": 1080,
      "ppy": 1081,
      "Ġhappened": 1082,
      "Ġgrass": 1083,
      "Ġbrother": 1084,
      "Ġonly": 1085,
      "Ġsing": 1086,
      "itchen": 1087,
      "Ġkitchen": 1088,
      "Ġreached": 1089,
      "iss": 1090,
      "Ġmon": 1091,
      "ila": 1092,
      "Ġrealized": 1093,
      "Ġsand": 1094,
      "Ġhere": 1095,
      "Ġblock": 1096,
      "Ġglad": 1097,
      "Ġflo": 1098,
      "ĠAs": 1099,
      "ĠSarah": 1100,
      "Ġstory": 1101,
      "Ġdr": 1102,
      "nts": 1103,
      "Ġthrough": 1104,
      "Can": 1105,
      "Ġru": 1106,
      "Ġate": 1107,
      "Ġstop": 1108,
      "Ġrest": 1109,
      "Ġhaving": 1110,
      "Ġyummy": 1111,
      "Ġfire": 1112,
      "Ġbegan": 1113,
      "zy": 1114,
      "Ġbeh": 1115,
      "Ġreally": 1116,
      "Ġready": 1117,
      "where": 1118,
      "Ġmum": 1119,
      "Ġgame": 1120,
      "Ġtri": 1121,
      "ater": 1122,
      "Ġpare": 1123,
      "Ġhimself": 1124,
      "Ġprin": 1125,
      "Ġworld": 1126,
      "Ġsoft": 1127,
      "Ġmess": 1128,
      "fully": 1129,
      "Ġtired": 1130,
      "Ġsees": 1131,
      "ather": 1132,
      "Ġdraw": 1133,
      "Ġshouted": 1134,
      "Ġless": 1135,
      "Ġmagic": 1136,
      "Ġunderst": 1137,
      "Ġlady": 1138,
      "Ġfavor": 1139,
      "olly": 1140,
      "Ġdone": 1141,
      "ster": 1142,
      "Ġthing": 1143,
      "Ġfill": 1144,
      "Ġfavorite": 1145,
      "Ġmaking": 1146,
      "ĠLet": 1147,
      "Ġseen": 1148,
      "Ġwaved": 1149,
      "uff": 1150,
      "ins": 1151,
      "sh": 1152,
      "Ġste": 1153,
      "Ġused": 1154,
      "'re": 1155,
      "Ġbutterf": 1156,
      "Ġfix": 1157,
      "Ġcoming": 1158,
      "Ġhat": 1159,
      "Ġcut": 1160,
      "Ġdelic": 1161,
      "ken": 1162,
      "Ġbunny": 1163,
      "Ġpond": 1164,
      "ĠJoe": 1165,
      "Ġtast": 1166,
      "Ġmouse": 1167,
      "Ġwhy": 1168,
      "Mommy": 1169,
      "Ġduck": 1170,
      "Ġtop": 1171,
      "Ġkids": 1172,
      "Ġworry": 1173,
      "Ġflower": 1174,
      "Ġparents": 1175,
      "Ġpart": 1176,
      "bo": 1177,
      "ient": 1178,
      "Ġcatch": 1179,
      "Ġfunny": 1180,
      "John": 1181,
      "Ġprom": 1182,
      "Ġpap": 1183,
      "mer": 1184,
      "Ġname": 1185,
      "iver": 1186,
      "rel": 1187,
      "Ġswim": 1188,
      "As": 1189,
      "aisy": 1190,
      "air": 1191,
      "ign": 1192,
      "Timmy": 1193,
      "Ġpretend": 1194,
      "Ġfull": 1195,
      "Ġcool": 1196,
      "ĠDo": 1197,
      "ation": 1198,
      "Ġanother": 1199,
      "ĠThat": 1200,
      "Ġworked": 1201,
      "Ġtouch": 1202,
      "akes": 1203,
      "Ġhopped": 1204,
      "Ġlight": 1205,
      "Ġfro": 1206,
      "Wow": 1207,
      "oney": 1208,
      "eddy": 1209,
      "Ġsurprise": 1210,
      "Ġpus": 1211,
      "Ġtrees": 1212,
      "Ġ-": 1213,
      "Ġcra": 1214,
      "Ġlooks": 1215,
      "Ġhair": 1216,
      "ĠCan": 1217,
      "Ġdin": 1218,
      "Ġdro": 1219,
      "Ġremembered": 1220,
      "ued": 1221,
      "Ġrunning": 1222,
      "Ġyears": 1223,
      "Ġspot": 1224,
      "Ġgreen": 1225,
      "ely": 1226,
      "ards": 1227,
      "Ġcried": 1228,
      "Ġsmell": 1229,
      "Ġset": 1230,
      "Ġcars": 1231,
      "Ġthank": 1232,
      "Ġdark": 1233,
      "Don": 1234,
      "Ġwood": 1235,
      "Ġlesson": 1236,
      "Ġbag": 1237,
      "Ġsho": 1238,
      "hy": 1239,
      "Ġsleep": 1240,
      "Ġhappily": 1241,
      "andy": 1242,
      "Ġsat": 1243,
      "Ġslow": 1244,
      "Ġbehind": 1245,
      "ssed": 1246,
      "Ġperf": 1247,
      "Ġcarefully": 1248,
      "Ġyellow": 1249,
      "Ġread": 1250,
      "\".": 1251,
      "Ġneeded": 1252,
      "Ġdri": 1253,
      "ĠIn": 1254,
      "Ġhold": 1255,
      "ul": 1256,
      "Ġwindow": 1257,
      "Ġfloor": 1258,
      "Ġfinished": 1259,
      "Ġbow": 1260,
      "ike": 1261,
      "aring": 1262,
      "Ġtall": 1263,
      "ren": 1264,
      "Ġsurprised": 1265,
      "Ġcla": 1266,
      "Ġdoing": 1267,
      "Ġcold": 1268,
      "Ġbutterfly": 1269,
      "Ġmove": 1270,
      "Ġair": 1271,
      "Ġenjoyed": 1272,
      "Ġhole": 1273,
      "Ġwished": 1274,
      "Sam": 1275,
      "inally": 1276,
      "Ġheld": 1277,
      "Ġbuy": 1278,
      "ĠAfter": 1279,
      "Ġpaper": 1280,
      "Ġlost": 1281,
      "Ġblocks": 1282,
      "uit": 1283,
      "Ġanything": 1284,
      "Ġdelicious": 1285,
      "Ġdream": 1286,
      "Ġarri": 1287,
      "Ġswing": 1288,
      "Ġice": 1289,
      "Ġleft": 1290,
      "Ġlaugh": 1291,
      "Ġherself": 1292,
      "Ġlion": 1293,
      "Ġrel": 1294,
      "ens": 1295,
      "Ġcontin": 1296,
      "Ġwrong": 1297,
      "Ġfair": 1298,
      "Ġfrog": 1299,
      "Ġhill": 1300,
      "ined": 1301,
      "Ġchildren": 1302,
      "ield": 1303,
      "Ġpre": 1304,
      "Ġfollowed": 1305,
      "Ġhun": 1306,
      "Ġlikes": 1307,
      "Ġclose": 1308,
      "Ġfriendly": 1309,
      "reed": 1310,
      "ream": 1311,
      "cess": 1312,
      "Ġarrived": 1313,
      "Ġable": 1314,
      "Ġforgot": 1315,
      "Ġhid": 1316,
      "Ġhot": 1317,
      "Ġcast": 1318,
      "Ġdir": 1319,
      "Ġwonderful": 1320,
      "Ġhear": 1321,
      "ĠBenny": 1322,
      "Ġfilled": 1323,
      "ĠSally": 1324,
      "Ġtight": 1325,
      "Ġel": 1326,
      "Ġgone": 1327,
      "Ġbuild": 1328,
      "Ġbaby": 1329,
      "asure": 1330,
      "Ġunderstand": 1331,
      "Ġmight": 1332,
      "Ġarm": 1333,
      "Ġtable": 1334,
      "Ġbug": 1335,
      "Ġcreat": 1336,
      "lf": 1337,
      "Then": 1338,
      "Ġsnow": 1339,
      "Ġmat": 1340,
      "ner": 1341,
      "Hell": 1342,
      "Hello": 1343,
      "Ġbooks": 1344,
      "ĠDaisy": 1345,
      "Ġcontinued": 1346,
      "Ġelse": 1347,
      "ich": 1348,
      "Ġgent": 1349,
      "irrel": 1350,
      "!âĢĿ": 1351,
      "Jack": 1352,
      "ds": 1353,
      "ĠEm": 1354,
      "Ġyes": 1355,
      "ey": 1356,
      "ross": 1357,
      "Ġcolors": 1358,
      "Ġstayed": 1359,
      "av": 1360,
      "From": 1361,
      "ĠNow": 1362,
      "Ġfinally": 1363,
      "Ġsong": 1364,
      "Ġpat": 1365,
      "ĠThere": 1366,
      "Ġwall": 1367,
      "Ġleaves": 1368,
      "Ġbroken": 1369,
      "Ġsomeone": 1370,
      "Ġplease": 1371,
      "Ġenough": 1372,
      "Ġmorning": 1373,
      "Ġgetting": 1374,
      "Ġsquirrel": 1375,
      "room": 1376,
      "Ġcount": 1377,
      "Ġagreed": 1378,
      "Ġamazing": 1379,
      "Ġvis": 1380,
      "sp": 1381,
      "gon": 1382,
      "ash": 1383,
      "Ġpink": 1384,
      "Ġscary": 1385,
      "ask": 1386,
      "Ġcomp": 1387,
      "'ll": 1388,
      "Ġbreak": 1389,
      "Ġperfect": 1390,
      "Ġmoment": 1391,
      "Ġmar": 1392,
      ".âĢĿ": 1393,
      "ĠBilly": 1394,
      "icy": 1395,
      "At": 1396,
      "Ġfew": 1397,
      "Ġpoin": 1398,
      "Ġtrying": 1399,
      "Ġmother": 1400,
      "Ġcastle": 1401,
      "Ġju": 1402,
      "Ġothers": 1403,
      "Ġpuppy": 1404,
      "Ġgrandma": 1405,
      "oom": 1406,
      "ance": 1407,
      "rot": 1408,
      "Ġpi": 1409,
      "Ġdaddy": 1410,
      "ama": 1411,
      "Ġdinner": 1412,
      "Ġwants": 1413,
      "ced": 1414,
      "row": 1415,
      "Ġbeach": 1416,
      "Ġmus": 1417,
      "Ġwasn": 1418,
      "Ġjoy": 1419,
      "ries": 1420,
      "ĠLila": 1421,
      "Ġwet": 1422,
      "Ġfight": 1423,
      "Ġhungry": 1424,
      "Ġturned": 1425,
      "ĠK": 1426,
      "Ġbrought": 1427,
      "oup": 1428,
      "Ġmet": 1429,
      "Ġcream": 1430,
      "oring": 1431,
      "Ġstrange": 1432,
      "Ġsometimes": 1433,
      "Ġsail": 1434,
      "red": 1435,
      "Ġclimbed": 1436,
      "Ġfur": 1437,
      "ons": 1438,
      "ĠThis": 1439,
      "Ġlistened": 1440,
      "ee": 1441,
      "Ġroll": 1442,
      "Ġwhite": 1443,
      "Ġpictures": 1444,
      "Ġfall": 1445,
      "OK": 1446,
      "ence": 1447,
      "uffy": 1448,
      "Ġcookies": 1449,
      "wl": 1450,
      "Ġsear": 1451,
      "Ġballoon": 1452,
      "man": 1453,
      "Ġspl": 1454,
      "Ġspark": 1455,
      "ĠTommy": 1456,
      "ated": 1457,
      "Ġclot": 1458,
      "Ġeverything": 1459,
      "His": 1460,
      "ucky": 1461,
      "Ġclothes": 1462,
      "Ġwoods": 1463,
      "ever": 1464,
      "ĠTo": 1465,
      "This": 1466,
      "Ġdeep": 1467,
      "Ġamazed": 1468,
      "Ġpol": 1469,
      "amp": 1470,
      "ĠWhat": 1471,
      "pping": 1472,
      "Ġtalk": 1473,
      "der": 1474,
      "Ġride": 1475,
      "ĠJen": 1476,
      "eter": 1477,
      "Ġthre": 1478,
      "ower": 1479,
      "Ġtail": 1480,
      "ister": 1481,
      "ĠMaybe": 1482,
      "Ġsmiles": 1483,
      "os": 1484,
      "Ġalone": 1485,
      "Ġwaited": 1486,
      "Ġmakes": 1487,
      "med": 1488,
      "ĠGra": 1489,
      "Ġgrow": 1490,
      "Ġsit": 1491,
      "Ġpet": 1492,
      "Ġpie": 1493,
      "ctor": 1494,
      "Ġvisit": 1495,
      "Ġmusic": 1496,
      "key": 1497,
      "Ġlake": 1498,
      "Ġdanger": 1499,
      "elc": 1500,
      "Ġwon": 1501,
      "ott": 1502,
      "Ġtreat": 1503,
      "me": 1504,
      "Ġplan": 1505,
      "Ġleave": 1506,
      "Ġpulled": 1507,
      "Ġside": 1508,
      "Ġcloud": 1509,
      "ugg": 1510,
      "Ġsilly": 1511,
      "Oh": 1512,
      "Ġflying": 1513,
      "ix": 1514,
      "ope": 1515,
      "zz": 1516,
      "Ġland": 1517,
      "thy": 1518,
      "Ġfield": 1519,
      "ang": 1520,
      "Ġhide": 1521,
      "Ġtowards": 1522,
      "Ġbelie": 1523,
      "Ġfox": 1524,
      "Ġpromised": 1525,
      "Max": 1526,
      "Ġteddy": 1527,
      "Ġowner": 1528,
      "ĠAmy": 1529,
      "ained": 1530,
      "Ġshared": 1531,
      "ames": 1532,
      "Ġbigger": 1533,
      "orm": 1534,
      "ually": 1535,
      "Ġsec": 1536,
      "cket": 1537,
      "igg": 1538,
      "ĠAll": 1539,
      "Ġmoney": 1540,
      "Ġslowly": 1541,
      "Ġbran": 1542,
      "Ġsuch": 1543,
      "Ġmoral": 1544,
      "Ġgu": 1545,
      "iet": 1546,
      "eces": 1547,
      "Ġworried": 1548,
      "Ġgrate": 1549,
      "Ġtreasure": 1550,
      "ling": 1551,
      "Ġpieces": 1552,
      "Ġem": 1553,
      "Ġnap": 1554,
      "Ġpen": 1555,
      "Ġblank": 1556,
      "Ġasks": 1557,
      "gs": 1558,
      "Ġmagical": 1559,
      "avy": 1560,
      "cle": 1561,
      "Ġcup": 1562,
      "Ġsister": 1563,
      "ased": 1564,
      "fort": 1565,
      "Ġcolorful": 1566,
      "Ġparty": 1567,
      "ze": 1568,
      "Ġgrateful": 1569,
      "Ġfaster": 1570,
      "Ġmust": 1571,
      "Ġrace": 1572,
      "ire": 1573,
      "Ġplant": 1574,
      "Ġriver": 1575,
      "ĠJim": 1576,
      "Ġblanket": 1577,
      "ol": 1578,
      "Ġwear": 1579,
      "Ġdance": 1580,
      "ises": 1581,
      "ape": 1582,
      "sw": 1583,
      "Ġquiet": 1584,
      "Ġmost": 1585,
      "Ġjob": 1586,
      "unch": 1587,
      "Ġansw": 1588,
      "Ġreach": 1589,
      "less": 1590,
      "Ġeverywhere": 1591,
      "Ġpro": 1592,
      "Ġgift": 1593,
      "Ġele": 1594,
      "app": 1595,
      "Ġsnack": 1596,
      "Ġcandy": 1597,
      "Ġcho": 1598,
      "Ġpaint": 1599,
      "ph": 1600,
      "up": 1601,
      "Ġpot": 1602,
      "Ġliving": 1603,
      "Ġbott": 1604,
      "Ġmonster": 1605,
      "Ġhelping": 1606,
      "Ġthinks": 1607,
      "Okay": 1608,
      "Maybe": 1609,
      "Ġsmart": 1610,
      "Ġjoin": 1611,
      "ĠFl": 1612,
      "bble": 1613,
      "set": 1614,
      "Ġbike": 1615,
      "Ġdragon": 1616,
      "Ġwelc": 1617,
      "Ġacross": 1618,
      "Ġstepped": 1619,
      "ming": 1620,
      "Ġfarmer": 1621,
      "Ġje": 1622,
      "Ġruns": 1623,
      "outh": 1624,
      "Ġbar": 1625,
      "Ġcarrot": 1626,
      "Ġdolls": 1627,
      "Ġatt": 1628,
      "ĠMolly": 1629,
      "Ġmix": 1630,
      "Ġtrain": 1631,
      "Ġhig": 1632,
      "ipped": 1633,
      "Ġmouth": 1634,
      "Ġblack": 1635,
      "ident": 1636,
      "Ġwouldn": 1637,
      "Ġprincess": 1638,
      "Ġacc": 1639,
      "ere": 1640,
      "Ġdangerous": 1641,
      "Ġsame": 1642,
      "Ġheal": 1643,
      "Ġbroke": 1644,
      "ĠJill": 1645,
      "Ġwin": 1646,
      "Ġheavy": 1647,
      "eared": 1648,
      "Ġdisapp": 1649,
      "Ġscream": 1650,
      "Ġspr": 1651,
      "Ġcrying": 1652,
      "ear": 1653,
      "Ġbelieve": 1654,
      "ored": 1655,
      "Ġclosed": 1656,
      "Ġbowl": 1657,
      "ĠDaddy": 1658,
      "Sure": 1659,
      "Ġsign": 1660,
      "Ġstuck": 1661,
      "Ġbee": 1662,
      "Ġdirty": 1663,
      "Ġeating": 1664,
      "Ġwords": 1665,
      "Ġcoll": 1666,
      "iting": 1667,
      "Ġstre": 1668,
      "vel": 1669,
      "Ġdoctor": 1670,
      "Ġfruit": 1671,
      "Ġteac": 1672,
      "Why": 1673,
      "Ġthrew": 1674,
      "Ġtown": 1675,
      "Ġbite": 1676,
      "Ġhigher": 1677,
      "Ġbutt": 1678,
      "Ġbuck": 1679,
      "chool": 1680,
      "de": 1681,
      "Ġneigh": 1682,
      "Ġbath": 1683,
      "ĠMr": 1684,
      "Ġcheered": 1685,
      "br": 1686,
      "Ġheart": 1687,
      "ord": 1688,
      "ventually": 1689,
      "Ġneighb": 1690,
      "Ġmonkey": 1691,
      "Ġpers": 1692,
      "Ġstand": 1693,
      "Ġsuddenly": 1694,
      "Ġtwins": 1695,
      "Ġmin": 1696,
      "umb": 1697,
      "Ġpack": 1698,
      "Ġlonger": 1699,
      "Ġschool": 1700,
      "Ġfairy": 1701,
      "Hi": 1702,
      "Ġaccident": 1703,
      "Ġpast": 1704,
      "Ġfree": 1705,
      "Ġdry": 1706,
      "Ġclapped": 1707,
      "Ġwithout": 1708,
      "Ġtower": 1709,
      "cked": 1710,
      "ier": 1711,
      "asket": 1712,
      "Mia": 1713,
      "Ġhit": 1714,
      "Ġteacher": 1715,
      "Ġbasket": 1716,
      "ract": 1717,
      "Ġsmo": 1718,
      "Finally": 1719,
      "Ġtoday": 1720,
      "Ġdrove": 1721,
      "Ġgentle": 1722,
      "Ġwings": 1723,
      "cy": 1724,
      "Ġcray": 1725,
      "Ġyard": 1726,
      "ney": 1727,
      "Ġcour": 1728,
      "Ġhoped": 1729,
      "Ġpushed": 1730,
      "Ġjour": 1731,
      "ead": 1732,
      "ass": 1733,
      "Ġpocket": 1734,
      "Ġchair": 1735,
      "Ġforget": 1736,
      "Ġhappen": 1737,
      "Ġlon": 1738,
      "ors": 1739,
      "Ġalong": 1740,
      "orrow": 1741,
      "Ġgames": 1742,
      "Ġinst": 1743,
      "Ġbrown": 1744,
      "Ġsea": 1745,
      "Ġswings": 1746,
      "Ġcorn": 1747,
      "Ġexplained": 1748,
      "Ġsinging": 1749,
      "Ġlonely": 1750,
      "Ġsang": 1751,
      "Ġcourse": 1752,
      "Ġfeels": 1753,
      "Ġfence": 1754,
      "Ġadventures": 1755,
      "Ġpiece": 1756,
      "ek": 1757,
      "Ġupset": 1758,
      "Ġsecret": 1759,
      "yard": 1760,
      "Ġmoved": 1761,
      "Ġyoung": 1762,
      "Ġbackyard": 1763,
      "ment": 1764,
      "Ġbring": 1765,
      "Ġswam": 1766,
      "ountain": 1767,
      "Ġexploring": 1768,
      "Ġshoes": 1769,
      "issed": 1770,
      "Ġstories": 1771,
      "Ġtrou": 1772,
      "Ġowl": 1773,
      "Ġwelcome": 1774,
      "ward": 1775,
      "ible": 1776,
      "ĠEmma": 1777,
      "Ġplac": 1778,
      "Ġtaking": 1779,
      "?âĢĿ": 1780,
      "Ġapple": 1781,
      "Ġnoises": 1782,
      "Ġdist": 1783,
      "phant": 1784,
      "Ġtiny": 1785,
      "Ġseemed": 1786,
      "Ġthrow": 1787,
      "Ġlate": 1788,
      "itting": 1789,
      "Ġrocks": 1790,
      "oun": 1791,
      "Ġdropped": 1792,
      "Ġexp": 1793,
      "Ġturns": 1794,
      "ho": 1795,
      "Ġwhe": 1796,
      "fused": 1797,
      "Ġelephant": 1798,
      "Ġnearby": 1799,
      "Ġstars": 1800,
      "Ġbucket": 1801,
      "Ġshop": 1802,
      "Ġcaught": 1803,
      "ches": 1804,
      "Ġlunch": 1805,
      "Ġjar": 1806,
      "Ġve": 1807,
      "Ġbelong": 1808,
      "Ġes": 1809,
      "Ġsoup": 1810,
      "Ġwise": 1811,
      "Ġrelie": 1812,
      "ĠMary": 1813,
      "Ġshook": 1814,
      "Ġwoke": 1815,
      "Ġca": 1816,
      "bby": 1817,
      "Ġneck": 1818,
      "Ġdrink": 1819,
      "Ġ3": 1820,
      "Ġthough": 1821,
      "ĠFluffy": 1822,
      "bow": 1823,
      "Ġnaught": 1824,
      "ush": 1825,
      "Ġwell": 1826,
      "Ġnaughty": 1827,
      "Ġyear": 1828,
      "Ġmail": 1829,
      "Ġben": 1830,
      "ocked": 1831,
      "Ġstreet": 1832,
      "ions": 1833,
      "llo": 1834,
      "Ġsu": 1835,
      "Ġwish": 1836,
      "Ġhugs": 1837,
      "Ġorange": 1838,
      "Ġshap": 1839,
      "Ġpig": 1840,
      "sy": 1841,
      "Ġinv": 1842,
      "ces": 1843,
      "Ġbusy": 1844,
      "Ġdes": 1845,
      "Ġph": 1846,
      "cing": 1847,
      "Ġmiss": 1848,
      "ung": 1849,
      "aughter": 1850,
      "weet": 1851,
      "adow": 1852,
      "Ġbat": 1853,
      "Ġpurp": 1854,
      "Ġkey": 1855,
      "ining": 1856,
      "Ġstar": 1857,
      "Ġcou": 1858,
      "to": 1859,
      "Ġhuge": 1860,
      "Ġjuice": 1861,
      "Ġrainbow": 1862,
      "Lila": 1863,
      "Ġtom": 1864,
      "ours": 1865,
      "Ġforever": 1866,
      "And": 1867,
      "ity": 1868,
      "Ġcow": 1869,
      "ĠInside": 1870,
      "vered": 1871,
      "ĠFinally": 1872,
      "Ġob": 1873,
      "col": 1874,
      "Ġstu": 1875,
      "Do": 1876,
      "Ġfarm": 1877,
      "Ġbranch": 1878,
      "shine": 1879,
      "Ġpurple": 1880,
      "Ġnest": 1881,
      "irt": 1882,
      "idge": 1883,
      "Ġarms": 1884,
      "Ġfit": 1885,
      "Ġdaughter": 1886,
      "Ġaf": 1887,
      "Ġshapes": 1888,
      "Ġmark": 1889,
      "let": 1890,
      "ittens": 1891,
      "ĠGrandma": 1892,
      "ail": 1893,
      "Ġnose": 1894,
      "Ġrelieved": 1895,
      "Ġsick": 1896,
      "Ġboun": 1897,
      "Ġpeace": 1898,
      "Ġcarry": 1899,
      "Ġround": 1900,
      "Ġswimming": 1901,
      "Ġnothing": 1902,
      "Ġresp": 1903,
      "Ġsunshine": 1904,
      "cer": 1905,
      "Ġlife": 1906,
      "Ġwondered": 1907,
      "Ġcir": 1908,
      "pper": 1909,
      "Ġsitting": 1910,
      "Ġret": 1911,
      "Ġexciting": 1912,
      "Ġkite": 1913,
      "Ġwhist": 1914,
      "Ġonto": 1915,
      "Ġking": 1916,
      "Ġcreature": 1917,
      "Ġmine": 1918,
      "Ġdisco": 1919,
      "Ġpatient": 1920,
      "Ġmil": 1921,
      "ese": 1922,
      "raid": 1923,
      "ĠThank": 1924,
      "Ġjourney": 1925,
      "itch": 1926,
      "Ġdays": 1927,
      "ose": 1928,
      "Ġletter": 1929,
      "Ġafraid": 1930,
      "ĠO": 1931,
      "Ġhello": 1932,
      "Ġaccidentally": 1933,
      "gg": 1934,
      "Ġmad": 1935,
      "ĠSammy": 1936,
      "ĠSoon": 1937,
      "Ġreturn": 1938,
      "uched": 1939,
      "Ġtouched": 1940,
      "thday": 1941,
      "sting": 1942,
      "Ġspoon": 1943,
      "fish": 1944,
      "Ġlaughing": 1945,
      "Ġpower": 1946,
      "Ġfan": 1947,
      "Ġdriver": 1948,
      "Ġcute": 1949,
      "Ġintere": 1950,
      "itten": 1951,
      "ĠMama": 1952,
      "Ġcollect": 1953,
      "sc": 1954,
      "Ġsounds": 1955,
      "ness": 1956,
      "Ġtakes": 1957,
      "Ġholding": 1958,
      "Later": 1959,
      "Ġcave": 1960,
      "Ġlift": 1961,
      "Ġinstead": 1962,
      "Ġcomfort": 1963,
      "Ġsunny": 1964,
      "Ġshell": 1965,
      "Ġgigg": 1966,
      "Ġband": 1967,
      "Ġinc": 1968,
      "Ġcoat": 1969,
      "Ġcozy": 1970,
      "Ġact": 1971,
      "board": 1972,
      "Ġwra": 1973,
      "Ġcomes": 1974,
      "Ġsearched": 1975,
      "Ġear": 1976,
      "Ġce": 1977,
      "Ġbench": 1978,
      "Ġbought": 1979,
      "Ġfing": 1980,
      "Ġbirthday": 1981,
      "Ġsmiling": 1982,
      "ten": 1983,
      "Ġhor": 1984,
      "Ġgather": 1985,
      "Ġimag": 1986,
      "ped": 1987,
      "Ġeas": 1988,
      "Ġlucky": 1989,
      "oman": 1990,
      "Ġstorm": 1991,
      "og": 1992,
      "Ġwoman": 1993,
      "Ġpudd": 1994,
      "Ġmilk": 1995,
      "round": 1996,
      "Ġpointed": 1997,
      "Ġcheese": 1998,
      "Ġgrab": 1999,
      "Ġpres": 2000,
      "Ġmist": 2001,
      "Ġspo": 2002,
      "Ġwatching": 2003,
      "ize": 2004,
      "Ġpromise": 2005,
      "Ġanyone": 2006,
      "alm": 2007,
      "ball": 2008,
      "Bob": 2009,
      "Ġwide": 2010,
      "Ġsandw": 2011,
      "Ġtasty": 2012,
      "Ġspin": 2013,
      "unt": 2014,
      "Of": 2015,
      "Ġtalked": 2016,
      "Ġspid": 2017,
      "ĠTweet": 2018,
      "ove": 2019,
      "ts": 2020,
      "gged": 2021,
      "blem": 2022,
      "Ġhealthy": 2023,
      "Ġent": 2024,
      "Ġkick": 2025,
      "Ġproblem": 2026,
      "arp": 2027,
      "eth": 2028,
      "Ġhope": 2029,
      "Ġlater": 2030,
      "Ġshining": 2031,
      "Ġtrouble": 2032,
      "Ġzoom": 2033,
      "Ġsuc": 2034,
      "Ġbread": 2035,
      "Hey": 2036,
      "Ġsharp": 2037,
      "Ġroad": 2038,
      "Tommy": 2039,
      "Ġadm": 2040,
      "Ġperson": 2041,
      "Ġsaf": 2042,
      "ub": 2043,
      "Ġbush": 2044,
      "aur": 2045,
      "Ġbottle": 2046,
      "owed": 2047,
      "Ġbutton": 2048,
      "Ġinteresting": 2049,
      "Ġrope": 2050,
      "Ġmatter": 2051,
      "Ġpresent": 2052,
      "Ġclouds": 2053,
      "Ġlovely": 2054,
      "els": 2055,
      "Ġpract": 2056,
      "Ġvill": 2057,
      "Ġwhich": 2058,
      "ĠWith": 2059,
      "Ġwhole": 2060,
      "ĠJimmy": 2061,
      "Ġsur": 2062,
      "Ġplane": 2063,
      "Ġmyster": 2064,
      "Ġgives": 2065,
      "Ġhoney": 2066,
      "Ġclever": 2067,
      "Ġquest": 2068,
      "Ġcheer": 2069,
      "ĠCome": 2070,
      "Ġspotted": 2071,
      "ont": 2072,
      "lla": 2073,
      "Ġsmelled": 2074,
      "Ġap": 2075,
      "Ġducks": 2076,
      "Ġmeet": 2077,
      "ndp": 2078,
      "Ġtasted": 2079,
      "Ġpar": 2080,
      "Ġappeared": 2081,
      "Ġapples": 2082,
      "Ġprot": 2083,
      "Ġorgan": 2084,
      "Ġpath": 2085,
      "cean": 2086,
      "Ġocean": 2087,
      "epend": 2088,
      "Ġrolled": 2089,
      "Ġfront": 2090,
      "Ġgiant": 2091,
      "Ġneighbor": 2092,
      "Ġprotect": 2093,
      "Ġkiss": 2094,
      "Ġhorse": 2095,
      "Ġhon": 2096,
      "ale": 2097,
      "Ġzoo": 2098,
      "Ġdanced": 2099,
      "Ġpop": 2100,
      "ond": 2101,
      "Ġfeather": 2102,
      "Ġlay": 2103,
      "isa": 2104,
      "oose": 2105,
      "Every": 2106,
      "Ġpile": 2107,
      "ching": 2108,
      "Lucy": 2109,
      "Ġcrayons": 2110,
      "erly": 2111,
      "Ġthin": 2112,
      "Ġtrip": 2113,
      "Ġeag": 2114,
      "een": 2115,
      "Ġseat": 2116,
      "Ġsnowman": 2117,
      "amed": 2118,
      "Ġputs": 2119,
      "Ġasleep": 2120,
      "Ġplaces": 2121,
      "eb": 2122,
      "Molly": 2123,
      "Ġminut": 2124,
      "ular": 2125,
      "Ġpill": 2126,
      "Ġtun": 2127,
      "Ġshr": 2128,
      "Ġwearing": 2129,
      "Ġmach": 2130,
      "nic": 2131,
      "In": 2132,
      "Ġdi": 2133,
      "Ġspent": 2134,
      "Ġpicnic": 2135,
      "itty": 2136,
      "Good": 2137,
      "Ġsack": 2138,
      "Ġimpre": 2139,
      "Ġwild": 2140,
      "izz": 2141,
      "Ġsplas": 2142,
      "Ġanswer": 2143,
      "Ġemb": 2144,
      "Ġmud": 2145,
      "Ġfoot": 2146,
      "Jim": 2147,
      "Ġpuzz": 2148,
      "Just": 2149,
      "Ġval": 2150,
      "Ġspider": 2151,
      "Ġloves": 2152,
      "ĠMittens": 2153,
      "Ġsnake": 2154,
      "Ġcorner": 2155,
      "la": 2156,
      "ert": 2157,
      "Ġmed": 2158,
      "Ġslid": 2159,
      "Ġscreamed": 2160,
      "ndpa": 2161,
      "nn": 2162,
      "Ġbuilding": 2163,
      "hile": 2164,
      "Ġmind": 2165,
      "arge": 2166,
      "Ġsupp": 2167,
      "Ġdirt": 2168,
      "Ġgently": 2169,
      "Ġrespect": 2170,
      "Ġsal": 2171,
      "cks": 2172,
      "umber": 2173,
      "Come": 2174,
      "ones": 2175,
      "ometimes": 2176,
      "Ġeventually": 2177,
      "Ġdelight": 2178,
      "Ġoven": 2179,
      "Ġcart": 2180,
      "Ġlive": 2181,
      "Ġconfused": 2182,
      "ĠEmily": 2183,
      "Ġfurry": 2184,
      "Ġtid": 2185,
      "Ġmountain": 2186,
      "Ġfeet": 2187,
      "Ġembar": 2188,
      "Ġremind": 2189,
      "Ġpass": 2190,
      "Ġbark": 2191,
      "Ġshirt": 2192,
      "Ġign": 2193,
      "lex": 2194,
      "Ġembarra": 2195,
      "Ġlad": 2196,
      "Ġwhenever": 2197,
      "Ġhelpful": 2198,
      "St": 2199,
      "Ġtalking": 2200,
      "Mum": 2201,
      "Ġser": 2202,
      "Ġteach": 2203,
      "Ġwrite": 2204,
      "Ġworm": 2205,
      "Ġlast": 2206,
      "Ġrec": 2207,
      "Ġcard": 2208,
      "Soon": 2209,
      "Ġbubble": 2210,
      "Ġwave": 2211,
      "unk": 2212,
      "Ġfaces": 2213,
      "Ġcouch": 2214,
      "Ġban": 2215,
      "Ġcoin": 2216,
      "Ġchick": 2217,
      "Ġblew": 2218,
      "Ġphone": 2219,
      "Ġcookie": 2220,
      "Ġbell": 2221,
      "ife": 2222,
      "Ġpan": 2223,
      "Ġcolour": 2224,
      "ĠSt": 2225,
      "als": 2226,
      "Ġsmooth": 2227,
      "mo": 2228,
      "Ġladder": 2229,
      "Ġgoes": 2230,
      "read": 2231,
      "Ġpretended": 2232,
      "Ġlarge": 2233,
      "Ġpaw": 2234,
      "Ġshy": 2235,
      "ĠEverywhere": 2236,
      "Ġtool": 2237,
      "Ġvillage": 2238,
      "ĠGo": 2239,
      "Ġcalm": 2240,
      "Ġrob": 2241,
      "Ġring": 2242,
      "Ġstret": 2243,
      "Ġdrive": 2244,
      "Ġant": 2245,
      "lebr": 2246,
      "Ġspread": 2247,
      "Ġash": 2248,
      "Ġwaiting": 2249,
      "ĠJenny": 2250,
      "Ġcelebr": 2251,
      "Ġhiding": 2252,
      "Ġcoo": 2253,
      "Ġforgive": 2254,
      "Ġpour": 2255,
      "Ġpool": 2256,
      "Ġple": 2257,
      "Ġstra": 2258,
      "Ġspray": 2259,
      "Ġmachine": 2260,
      "Ġtreats": 2261,
      "Ġrep": 2262,
      "ĠCh": 2263,
      "Ġtries": 2264,
      "Ġsel": 2265,
      "Ġfinish": 2266,
      "Ġchocol": 2267,
      "Ġknee": 2268,
      "Ġtidy": 2269,
      "ato": 2270,
      "Ġtomorrow": 2271,
      "Ġfixed": 2272,
      "ator": 2273,
      "Ġbanan": 2274,
      "Ġhum": 2275,
      "Ġsol": 2276,
      "Ġfighting": 2277,
      "Ġpush": 2278,
      "Ġrude": 2279,
      "ĠHow": 2280,
      "Ġchased": 2281,
      "Ġfold": 2282,
      "ĠJake": 2283,
      "Ġembarrassed": 2284,
      "old": 2285,
      "Ġteeth": 2286,
      "Ġspe": 2287,
      "urse": 2288,
      "Ġemp": 2289,
      "ungle": 2290,
      "Ġforward": 2291,
      "oph": 2292,
      "Ġgen": 2293,
      "ighed": 2294,
      "Ġtightly": 2295,
      "Ġrobot": 2296,
      "Ġempty": 2297,
      "Ġsongs": 2298,
      "ĠAl": 2299,
      "Ġcarrots": 2300,
      "Ġpeaceful": 2301,
      "Ġbarked": 2302,
      "Ġjungle": 2303,
      "Ġkitten": 2304,
      "Ġpuddle": 2305,
      "iger": 2306,
      "Ġwore": 2307,
      "Ġcloth": 2308,
      "inted": 2309,
      "Ġstep": 2310,
      "Ġstir": 2311,
      "aul": 2312,
      "Ġbugs": 2313,
      "ĠJust": 2314,
      "Ġcann": 2315,
      "Ġleaf": 2316,
      "Ġnet": 2317,
      "ult": 2318,
      "Ġtaste": 2319,
      "Ġgrew": 2320,
      "Ġselfish": 2321,
      "getable": 2322,
      "Ġstring": 2323,
      "arm": 2324,
      "Ġsave": 2325,
      "Ġmeadow": 2326,
      "Ġwhistle": 2327,
      "Ġcreative": 2328,
      "Ġvegetable": 2329,
      "Ġcannot": 2330,
      "Ġtrust": 2331,
      "Ġrocket": 2332,
      "Ġchocolate": 2333,
      "Ġstone": 2334,
      "Ġwip": 2335,
      "Ġtea": 2336,
      "Ġsparkly": 2337,
      "My": 2338,
      "Ġdeter": 2339,
      "Ġ'": 2340,
      "box": 2341,
      "den": 2342,
      "ground": 2343,
      "Ġdeterm": 2344,
      "umpy": 2345,
      "dge": 2346,
      "Ġdisappo": 2347,
      "Ġspicy": 2348,
      "Ġknocked": 2349,
      "Ġsheep": 2350,
      "Ġcrab": 2351,
      "ird": 2352,
      "ĠSometimes": 2353,
      "Now": 2354,
      "Ġmeant": 2355,
      "Ġplate": 2356,
      "Ġsour": 2357,
      "Ġwash": 2358,
      "Ġjumping": 2359,
      "Ġhours": 2360,
      "Please": 2361,
      "ned": 2362,
      "ĠOn": 2363,
      "most": 2364,
      "Ġnut": 2365,
      "Ġdecor": 2366,
      "Ġknowing": 2367,
      "ĠMum": 2368,
      "Ġstood": 2369,
      "Ġlanded": 2370,
      "dle": 2371,
      "Ġlem": 2372,
      "Dad": 2373,
      "Ġline": 2374,
      "elly": 2375,
      "Ġneckl": 2376,
      "Ġhidden": 2377,
      "Ġshelf": 2378,
      "Ġpin": 2379,
      "ano": 2380,
      "Ġmissed": 2381,
      "Ġlegs": 2382,
      "ustr": 2383,
      "Ġfear": 2384,
      "To": 2385,
      "Ġalmost": 2386,
      "ĠLisa": 2387,
      "Ġsharing": 2388,
      "Ġgener": 2389,
      "Ġwhis": 2390,
      "ying": 2391,
      "Ġbreath": 2392,
      "Ġhonest": 2393,
      "'d": 2394,
      "Ġmoon": 2395,
      "airs": 2396,
      "Ġav": 2397,
      "Ġdisappointed": 2398,
      "aking": 2399,
      "Ġmaybe": 2400,
      "Ġcarried": 2401,
      "Ġprince": 2402,
      "Mama": 2403,
      "Ġpri": 2404,
      "ĠPlease": 2405,
      "ĠEven": 2406,
      "ian": 2407,
      "Ġthankful": 2408,
      "Ġsnacks": 2409,
      "Ġpizz": 2410,
      "ĠSome": 2411,
      "Ġshore": 2412,
      "Ġgold": 2413,
      "gly": 2414,
      "kin": 2415,
      "Ġgun": 2416,
      "Ġfrustr": 2417,
      "Ġsplash": 2418,
      "ĠTV": 2419,
      "Ġbal": 2420,
      "Ġugly": 2421,
      "Ġscre": 2422,
      "Ġmessy": 2423,
      "Ġreturned": 2424,
      "erp": 2425,
      "Ġcro": 2426,
      "Ġgroup": 2427,
      "Ġunderstood": 2428,
      "ĠLe": 2429,
      "Ġplants": 2430,
      "Ġhears": 2431,
      "Ġmysterious": 2432,
      "Ġfancy": 2433,
      "Ġscar": 2434,
      "Ġsuccess": 2435,
      "ony": 2436,
      "Ġgray": 2437,
      "ĠTogether": 2438,
      "erry": 2439,
      "vous": 2440,
      "Ġtells": 2441,
      "Ġpay": 2442,
      "Ġwhisp": 2443,
      "Ġbedroom": 2444,
      "Ġtaught": 2445,
      "lower": 2446,
      "Ġfrustrated": 2447,
      "Ġstanding": 2448,
      "Ġseed": 2449,
      "Ġwolf": 2450,
      "Be": 2451,
      "ĠTheir": 2452,
      "Ġfig": 2453,
      "Ġnecklace": 2454,
      "Ġblow": 2455,
      "Ġjew": 2456,
      "Ġgathered": 2457,
      "Ġtest": 2458,
      "ital": 2459,
      "era": 2460,
      "Ġsandwich": 2461,
      "obby": 2462,
      "Ġsticks": 2463,
      "Ġsleepy": 2464,
      "orry": 2465,
      "Ġpizza": 2466,
      "Ġvan": 2467,
      "Ġyelled": 2468,
      "Ġcirc": 2469,
      "Ġmot": 2470,
      "ĠTeddy": 2471,
      "Ġpillow": 2472,
      "Ġdrew": 2473,
      "Ġspoil": 2474,
      "Ġtwirl": 2475,
      "Ġpowerful": 2476,
      "Ġhosp": 2477,
      "Ġeasy": 2478,
      "Ġgenerous": 2479,
      "Ġwaves": 2480,
      "Ġhospital": 2481,
      "Sarah": 2482,
      "Ġdetermined": 2483,
      "ĠAnn": 2484,
      "Ġpoor": 2485,
      "hin": 2486,
      "Ġgas": 2487,
      "Ġner": 2488,
      "llie": 2489,
      "usie": 2490,
      "Ġcomfortable": 2491,
      "Ġashamed": 2492,
      "itter": 2493,
      "Ġpassed": 2494,
      "sist": 2495,
      "ual": 2496,
      "ĠPeter": 2497,
      "ser": 2498,
      "Ġsna": 2499
    },
    "merges": [
      [
        "h",
        "e"
      ],
      [
        "Ġ",
        "t"
      ],
      [
        "Ġ",
        "a"
      ],
      [
        "Ġ",
        "s"
      ],
      [
        "n",
        "d"
      ],
      [
        "Ġ",
        "w"
      ],
      [
        "Ġt",
        "he"
      ],
      [
        "e",
        "d"
      ],
      [
        "Ġa",
        "nd"
      ],
      [
        "Ġt",
        "o"
      ],
      [
        "Ġ",
        "b"
      ],
      [
        "i",
        "n"
      ],
      [
        "Ġ",
        "h"
      ],
      [
        "Ġw",
        "a"
      ],
      [
        "r",
        "e"
      ],
      [
        "Ġ",
        "f"
      ],
      [
        "o",
        "u"
      ],
      [
        "i",
        "t"
      ],
      [
        "Ġ",
        "l"
      ],
      [
        "Ġ",
        "c"
      ],
      [
        "e",
        "r"
      ],
      [
        "Ġ",
        "he"
      ],
      [
        "Ġ",
        "d"
      ],
      [
        "Ġwa",
        "s"
      ],
      [
        "Ġ",
        "m"
      ],
      [
        "Ġ",
        "p"
      ],
      [
        "o",
        "m"
      ],
      [
        "Ġ",
        "T"
      ],
      [
        "Ġ",
        "o"
      ],
      [
        "a",
        "y"
      ],
      [
        "a",
        "r"
      ],
      [
        "in",
        "g"
      ],
      [
        "i",
        "s"
      ],
      [
        "Ġ",
        "g"
      ],
      [
        "i",
        "l"
      ],
      [
        "i",
        "d"
      ],
      [
        "a",
        "t"
      ],
      [
        "e",
        "n"
      ],
      [
        "Ġ",
        "n"
      ],
      [
        "Ġs",
        "a"
      ],
      [
        "Ġh",
        "a"
      ],
      [
        "Ġ",
        "S"
      ],
      [
        "ĠT",
        "he"
      ],
      [
        "a",
        "n"
      ],
      [
        "i",
        "m"
      ],
      [
        "o",
        "r"
      ],
      [
        "o",
        "n"
      ],
      [
        "Ġ",
        "it"
      ],
      [
        "Ġt",
        "h"
      ],
      [
        "l",
        "l"
      ],
      [
        "l",
        "e"
      ],
      [
        "Ġ",
        "H"
      ],
      [
        "Ġhe",
        "r"
      ],
      [
        "e",
        "t"
      ],
      [
        "o",
        "t"
      ],
      [
        "i",
        "r"
      ],
      [
        "ĠS",
        "he"
      ],
      [
        "e",
        "nd"
      ],
      [
        "ĠH",
        "e"
      ],
      [
        "e",
        "s"
      ],
      [
        "v",
        "er"
      ],
      [
        "Ġ",
        "in"
      ],
      [
        "u",
        "t"
      ],
      [
        "o",
        "w"
      ],
      [
        "c",
        "k"
      ],
      [
        "Ġ",
        "u"
      ],
      [
        "l",
        "d"
      ],
      [
        "ĠThe",
        "y"
      ],
      [
        "o",
        "o"
      ],
      [
        "e",
        "x"
      ],
      [
        "i",
        "g"
      ],
      [
        "Ġ",
        "y"
      ],
      [
        "Ġsa",
        "id"
      ],
      [
        "Ġ",
        "r"
      ],
      [
        "Ġb",
        "e"
      ],
      [
        "a",
        "m"
      ],
      [
        "il",
        "y"
      ],
      [
        "Ġs",
        "t"
      ],
      [
        "c",
        "e"
      ],
      [
        "Ġs",
        "he"
      ],
      [
        "Ġ",
        "\""
      ],
      [
        "p",
        "p"
      ],
      [
        "k",
        "e"
      ],
      [
        "Ġ",
        "I"
      ],
      [
        "it",
        "h"
      ],
      [
        "v",
        "e"
      ],
      [
        "O",
        "n"
      ],
      [
        "Ġw",
        "ith"
      ],
      [
        "Ġo",
        "f"
      ],
      [
        "Ġo",
        "n"
      ],
      [
        "L",
        "ily"
      ],
      [
        "Ġs",
        "o"
      ],
      [
        "k",
        "ed"
      ],
      [
        "r",
        "i"
      ],
      [
        "Ġh",
        "is"
      ],
      [
        "f",
        "t"
      ],
      [
        "ver",
        "y"
      ],
      [
        "n",
        "t"
      ],
      [
        "Ġp",
        "l"
      ],
      [
        "a",
        "d"
      ],
      [
        "Ġy",
        "ou"
      ],
      [
        "Ġd",
        "ay"
      ],
      [
        "Ġth",
        "at"
      ],
      [
        "Ġu",
        "p"
      ],
      [
        "Ġha",
        "d"
      ],
      [
        "e",
        "l"
      ],
      [
        "s",
        "t"
      ],
      [
        "Ġpl",
        "ay"
      ],
      [
        "ex",
        "t"
      ],
      [
        "Ġthe",
        "y"
      ],
      [
        "Ġ",
        "Lily"
      ],
      [
        "Ġ",
        "e"
      ],
      [
        "Ġm",
        "om"
      ],
      [
        "Ġf",
        "or"
      ],
      [
        "Ġw",
        "e"
      ],
      [
        "ou",
        "ld"
      ],
      [
        "m",
        "y"
      ],
      [
        "u",
        "n"
      ],
      [
        "o",
        "ft"
      ],
      [
        "<",
        "|"
      ],
      [
        "|",
        ">"
      ],
      [
        "end",
        "oft"
      ],
      [
        "endoft",
        "ext"
      ],
      [
        "Ġ",
        "B"
      ],
      [
        "T",
        "he"
      ],
      [
        "'",
        "s"
      ],
      [
        "en",
        "t"
      ],
      [
        "Ġha",
        "pp"
      ],
      [
        "it",
        "t"
      ],
      [
        "c",
        "h"
      ],
      [
        "Ġl",
        "i"
      ],
      [
        "Ġwa",
        "nt"
      ],
      [
        "ou",
        "t"
      ],
      [
        "he",
        "r"
      ],
      [
        "Ġs",
        "h"
      ],
      [
        "l",
        "y"
      ],
      [
        "Ġ",
        "Ċ"
      ],
      [
        "ou",
        "nd"
      ],
      [
        "im",
        "e"
      ],
      [
        "Ġ",
        "very"
      ],
      [
        "itt",
        "le"
      ],
      [
        "om",
        "e"
      ],
      [
        "s",
        "e"
      ],
      [
        "a",
        "ll"
      ],
      [
        "Ġt",
        "ime"
      ],
      [
        "Ġl",
        "ittle"
      ],
      [
        "Ġw",
        "h"
      ],
      [
        "Ġthe",
        "re"
      ],
      [
        "Ġd",
        "o"
      ],
      [
        "Ġn",
        "ot"
      ],
      [
        "Ġ",
        "k"
      ],
      [
        "a",
        "l"
      ],
      [
        "h",
        "t"
      ],
      [
        "Ġ",
        "re"
      ],
      [
        "Ġhapp",
        "y"
      ],
      [
        "Ġb",
        "ig"
      ],
      [
        "Ġ",
        "M"
      ],
      [
        "Ġs",
        "m"
      ],
      [
        "Ġb",
        "ut"
      ],
      [
        "ĠI",
        "t"
      ],
      [
        "a",
        "ck"
      ],
      [
        "Ġsa",
        "w"
      ],
      [
        "Ġa",
        "n"
      ],
      [
        "ri",
        "end"
      ],
      [
        "Ġf",
        "riend"
      ],
      [
        "r",
        "a"
      ],
      [
        "Ġa",
        "s"
      ],
      [
        "Ġ",
        "is"
      ],
      [
        "Ġn",
        "e"
      ],
      [
        "r",
        "y"
      ],
      [
        "On",
        "e"
      ],
      [
        "id",
        "e"
      ],
      [
        ".",
        "\""
      ],
      [
        "'",
        "t"
      ],
      [
        "a",
        "ke"
      ],
      [
        "v",
        "ed"
      ],
      [
        "On",
        "ce"
      ],
      [
        "u",
        "g"
      ],
      [
        "Ġl",
        "oo"
      ],
      [
        "Ġwe",
        "re"
      ],
      [
        "e",
        "c"
      ],
      [
        "o",
        "re"
      ],
      [
        "Ġl",
        "o"
      ],
      [
        "!",
        "\""
      ],
      [
        "Ġh",
        "im"
      ],
      [
        "Ġb",
        "o"
      ],
      [
        "Ġto",
        "o"
      ],
      [
        "ir",
        "l"
      ],
      [
        "Ġg",
        "o"
      ],
      [
        "ĠT",
        "im"
      ],
      [
        "Ġup",
        "on"
      ],
      [
        "Ġg",
        "irl"
      ],
      [
        "Ġs",
        "e"
      ],
      [
        "Ġwant",
        "ed"
      ],
      [
        "Ġ",
        "j"
      ],
      [
        "ar",
        "d"
      ],
      [
        "Ġ",
        "out"
      ],
      [
        "il",
        "l"
      ],
      [
        "Ġs",
        "p"
      ],
      [
        "w",
        "ay"
      ],
      [
        "f",
        "u"
      ],
      [
        "Ġc",
        "ould"
      ],
      [
        "Ġa",
        "t"
      ],
      [
        "Ġthe",
        "m"
      ],
      [
        "i",
        "nd"
      ],
      [
        "u",
        "r"
      ],
      [
        "he",
        "n"
      ],
      [
        "Ġa",
        "re"
      ],
      [
        "Ġ",
        "A"
      ],
      [
        "Ġd",
        "id"
      ],
      [
        "Ġsm",
        "il"
      ],
      [
        "Ġthe",
        "ir"
      ],
      [
        "a",
        "in"
      ],
      [
        "ar",
        "t"
      ],
      [
        "he",
        "d"
      ],
      [
        "Ġ",
        "ex"
      ],
      [
        "Ġw",
        "ent"
      ],
      [
        "Ġa",
        "r"
      ],
      [
        "r",
        "om"
      ],
      [
        "Ġha",
        "ve"
      ],
      [
        "t",
        "er"
      ],
      [
        "i",
        "c"
      ],
      [
        "Ġ",
        "J"
      ],
      [
        "Ġa",
        "ll"
      ],
      [
        "h",
        "ing"
      ],
      [
        "fu",
        "l"
      ],
      [
        "Ġn",
        "am"
      ],
      [
        "l",
        "p"
      ],
      [
        "ig",
        "ht"
      ],
      [
        "Ġfriend",
        "s"
      ],
      [
        "Ġk",
        "n"
      ],
      [
        "oo",
        "d"
      ],
      [
        "Ġhe",
        "lp"
      ],
      [
        "Ġc",
        "an"
      ],
      [
        "u",
        "m"
      ],
      [
        "on",
        "e"
      ],
      [
        "ar",
        "k"
      ],
      [
        "Ġb",
        "ack"
      ],
      [
        "?",
        "\""
      ],
      [
        "Ġc",
        "l"
      ],
      [
        "ĠB",
        "en"
      ],
      [
        "Ġf",
        "un"
      ],
      [
        "a",
        "re"
      ],
      [
        "Ġl",
        "e"
      ],
      [
        "Ġnam",
        "ed"
      ],
      [
        "Ġn",
        "o"
      ],
      [
        "Ġlo",
        "ved"
      ],
      [
        "ou",
        "g"
      ],
      [
        "Ġa",
        "l"
      ],
      [
        "Ġs",
        "c"
      ],
      [
        "Ġ",
        "One"
      ],
      [
        "el",
        "t"
      ],
      [
        "s",
        "ide"
      ],
      [
        "o",
        "p"
      ],
      [
        "ĠT",
        "om"
      ],
      [
        "Ġs",
        "ay"
      ],
      [
        "Y",
        "ou"
      ],
      [
        "Ġsmil",
        "ed"
      ],
      [
        "Ġf",
        "elt"
      ],
      [
        "i",
        "ck"
      ],
      [
        "Ġm",
        "an"
      ],
      [
        "Ġar",
        "ound"
      ],
      [
        "ĠTim",
        "my"
      ],
      [
        "Ġas",
        "ked"
      ],
      [
        "Ġf",
        "e"
      ],
      [
        "am",
        "e"
      ],
      [
        "Ġto",
        "y"
      ],
      [
        "Ġloo",
        "ked"
      ],
      [
        "om",
        "et"
      ],
      [
        "u",
        "re"
      ],
      [
        "Ġli",
        "ke"
      ],
      [
        "Ġw",
        "ould"
      ],
      [
        "Ġs",
        "ome"
      ],
      [
        "Ġbo",
        "y"
      ],
      [
        "Ġse",
        "e"
      ],
      [
        "Ġr",
        "o"
      ],
      [
        "g",
        "et"
      ],
      [
        "Ġb",
        "r"
      ],
      [
        "Ġb",
        "ir"
      ],
      [
        "Ġst",
        "art"
      ],
      [
        "Ġ",
        "W"
      ],
      [
        "Ġm",
        "e"
      ],
      [
        "on",
        "g"
      ],
      [
        "i",
        "ce"
      ],
      [
        "s",
        "s"
      ],
      [
        "Ġs",
        "omet"
      ],
      [
        "Ġbir",
        "d"
      ],
      [
        "ad",
        "e"
      ],
      [
        "Ġa",
        "g"
      ],
      [
        "Ġf",
        "a"
      ],
      [
        "Ġw",
        "or"
      ],
      [
        "d",
        "d"
      ],
      [
        "k",
        "ing"
      ],
      [
        "ing",
        "s"
      ],
      [
        "Ġwh",
        "at"
      ],
      [
        "Ġt",
        "re"
      ],
      [
        "get",
        "her"
      ],
      [
        "â",
        "Ģ"
      ],
      [
        "ow",
        "n"
      ],
      [
        "Ġa",
        "way"
      ],
      [
        "Ġstart",
        "ed"
      ],
      [
        "Ġm",
        "ake"
      ],
      [
        "i",
        "e"
      ],
      [
        "ĠB",
        "ut"
      ],
      [
        "Ġr",
        "an"
      ],
      [
        "ar",
        "ed"
      ],
      [
        "a",
        "g"
      ],
      [
        "ou",
        "d"
      ],
      [
        "Ġm",
        "ade"
      ],
      [
        "Ġsomet",
        "hing"
      ],
      [
        "it",
        "ed"
      ],
      [
        "Ġto",
        "gether"
      ],
      [
        ",",
        "\""
      ],
      [
        "Ġc",
        "o"
      ],
      [
        "Ġp",
        "ark"
      ],
      [
        "Ġex",
        "c"
      ],
      [
        "t",
        "her"
      ],
      [
        "Ġsa",
        "d"
      ],
      [
        "Ġc",
        "ar"
      ],
      [
        "Ġp",
        "ut"
      ],
      [
        "Ġ",
        "You"
      ],
      [
        "Ġf",
        "rom"
      ],
      [
        "b",
        "le"
      ],
      [
        "Ġo",
        "ther"
      ],
      [
        "Ġne",
        "w"
      ],
      [
        "Ġp",
        "r"
      ],
      [
        "Ġh",
        "ome"
      ],
      [
        "Ġl",
        "a"
      ],
      [
        "Ġm",
        "u"
      ],
      [
        "Ġag",
        "ain"
      ],
      [
        "Ġw",
        "hen"
      ],
      [
        "Ġsay",
        "s"
      ],
      [
        "Ġthe",
        "n"
      ],
      [
        "Ġd",
        "ec"
      ],
      [
        "Ġwh",
        "o"
      ],
      [
        "Ġh",
        "ug"
      ],
      [
        "e",
        "ll"
      ],
      [
        "i",
        "f"
      ],
      [
        "Ġf",
        "ound"
      ],
      [
        "e",
        "p"
      ],
      [
        "es",
        "t"
      ],
      [
        "ri",
        "ed"
      ],
      [
        "Ġ",
        "L"
      ],
      [
        "a",
        "ch"
      ],
      [
        "pp",
        "ed"
      ],
      [
        "Ġc",
        "h"
      ],
      [
        "Ġg",
        "ood"
      ],
      [
        "Ġ",
        "E"
      ],
      [
        "Ġf",
        "l"
      ],
      [
        "oo",
        "k"
      ],
      [
        "a",
        "s"
      ],
      [
        "Ġwa",
        "l"
      ],
      [
        "q",
        "u"
      ],
      [
        "Ġg",
        "et"
      ],
      [
        "all",
        "y"
      ],
      [
        "oug",
        "ht"
      ],
      [
        "Ġplay",
        "ing"
      ],
      [
        "p",
        "l"
      ],
      [
        "Ġexc",
        "ited"
      ],
      [
        "Ġs",
        "w"
      ],
      [
        "Ġg",
        "ot"
      ],
      [
        "Ġth",
        "ings"
      ],
      [
        "h",
        "at"
      ],
      [
        "ou",
        "s"
      ],
      [
        "id",
        "ed"
      ],
      [
        "Ġdec",
        "ided"
      ],
      [
        "Ġe",
        "very"
      ],
      [
        "u",
        "ck"
      ],
      [
        "Ġc",
        "ame"
      ],
      [
        "r",
        "o"
      ],
      [
        "a",
        "ve"
      ],
      [
        "Ġli",
        "ked"
      ],
      [
        "n",
        "y"
      ],
      [
        "a",
        "x"
      ],
      [
        "Ġbe",
        "c"
      ],
      [
        "Ġ",
        "v"
      ],
      [
        "Ġb",
        "l"
      ],
      [
        "Ġon",
        "e"
      ],
      [
        "Ġd",
        "own"
      ],
      [
        "Ġsc",
        "ared"
      ],
      [
        "ou",
        "se"
      ],
      [
        "u",
        "st"
      ],
      [
        "Ġf",
        "ind"
      ],
      [
        "Ġth",
        "an"
      ],
      [
        "Ġc",
        "are"
      ],
      [
        "u",
        "dd"
      ],
      [
        "Ġfe",
        "el"
      ],
      [
        "Ġ",
        "D"
      ],
      [
        "is",
        "t"
      ],
      [
        "n",
        "a"
      ],
      [
        "Ġyou",
        "r"
      ],
      [
        "ar",
        "a"
      ],
      [
        "way",
        "s"
      ],
      [
        "Ġa",
        "b"
      ],
      [
        "Ġ",
        "ke"
      ],
      [
        "Ġdo",
        "g"
      ],
      [
        "Ġd",
        "ad"
      ],
      [
        "Ġdid",
        "n"
      ],
      [
        "Ġal",
        "ways"
      ],
      [
        "ĠM",
        "om"
      ],
      [
        "Ġg",
        "ra"
      ],
      [
        "u",
        "e"
      ],
      [
        "Ġg",
        "r"
      ],
      [
        "a",
        "p"
      ],
      [
        "Ġmom",
        "my"
      ],
      [
        "f",
        "e"
      ],
      [
        "ar",
        "n"
      ],
      [
        "Ġ",
        "F"
      ],
      [
        "u",
        "s"
      ],
      [
        "Ġkn",
        "e"
      ],
      [
        "Ġl",
        "ot"
      ],
      [
        "Ġtoo",
        "k"
      ],
      [
        "an",
        "t"
      ],
      [
        "ou",
        "r"
      ],
      [
        "es",
        "s"
      ],
      [
        "Ġab",
        "out"
      ],
      [
        "nd",
        "er"
      ],
      [
        "ec",
        "i"
      ],
      [
        "Ġout",
        "side"
      ],
      [
        "Ġp",
        "o"
      ],
      [
        "er",
        "s"
      ],
      [
        "b",
        "b"
      ],
      [
        "Ġm",
        "y"
      ],
      [
        "Ġtre",
        "e"
      ],
      [
        "Ġloo",
        "k"
      ],
      [
        "c",
        "hed"
      ],
      [
        "The",
        "y"
      ],
      [
        "Ġth",
        "ought"
      ],
      [
        "en",
        "ed"
      ],
      [
        "is",
        "e"
      ],
      [
        "Ġw",
        "ill"
      ],
      [
        "it",
        "e"
      ],
      [
        "n",
        "na"
      ],
      [
        "Ġtoy",
        "s"
      ],
      [
        "Ġb",
        "all"
      ],
      [
        "Ġin",
        "t"
      ],
      [
        "eci",
        "al"
      ],
      [
        "Ġo",
        "ld"
      ],
      [
        "Ġsp",
        "ecial"
      ],
      [
        "ĠS",
        "am"
      ],
      [
        "Ġt",
        "a"
      ],
      [
        "Ġm",
        "ore"
      ],
      [
        "Ġle",
        "arn"
      ],
      [
        "Ġkne",
        "w"
      ],
      [
        "re",
        "t"
      ],
      [
        "Ġh",
        "o"
      ],
      [
        "Ġkn",
        "ow"
      ],
      [
        "Ġt",
        "ake"
      ],
      [
        "udd",
        "en"
      ],
      [
        "g",
        "ed"
      ],
      [
        "Ġla",
        "ug"
      ],
      [
        "ft",
        "er"
      ],
      [
        "ĠM",
        "ax"
      ],
      [
        "Ġp",
        "e"
      ],
      [
        "Ġc",
        "at"
      ],
      [
        "i",
        "ve"
      ],
      [
        "udden",
        "ly"
      ],
      [
        "Ġan",
        "y"
      ],
      [
        "Ġh",
        "ow"
      ],
      [
        "a",
        "u"
      ],
      [
        "Ġt",
        "r"
      ],
      [
        "m",
        "a"
      ],
      [
        "Ġmu",
        "ch"
      ],
      [
        "Ġsh",
        "ow"
      ],
      [
        "Ġs",
        "or"
      ],
      [
        "i",
        "a"
      ],
      [
        "Ġt",
        "w"
      ],
      [
        "v",
        "en"
      ],
      [
        "is",
        "h"
      ],
      [
        "Ġh",
        "ouse"
      ],
      [
        "Ġs",
        "l"
      ],
      [
        "Ġs",
        "k"
      ],
      [
        "a",
        "nd"
      ],
      [
        "in",
        "k"
      ],
      [
        "B",
        "ut"
      ],
      [
        "Ġm",
        "o"
      ],
      [
        "ĠE",
        "very"
      ],
      [
        "Ġr",
        "un"
      ],
      [
        "Ġint",
        "o"
      ],
      [
        "Ġs",
        "un"
      ],
      [
        "Ġo",
        "p"
      ],
      [
        "Ġcould",
        "n"
      ],
      [
        "Ġt",
        "ried"
      ],
      [
        "Ġcl",
        "o"
      ],
      [
        "Ġin",
        "side"
      ],
      [
        "Ġha",
        "nd"
      ],
      [
        "Ġto",
        "ld"
      ],
      [
        "Ġ",
        "en"
      ],
      [
        "Ġpr",
        "oud"
      ],
      [
        "Ġne",
        "ver"
      ],
      [
        "Ġ",
        "qu"
      ],
      [
        "Ġg",
        "ave"
      ],
      [
        "Ġo",
        "ver"
      ],
      [
        "Ġwa",
        "ter"
      ],
      [
        "au",
        "se"
      ],
      [
        "um",
        "p"
      ],
      [
        "at",
        "e"
      ],
      [
        "Ġsor",
        "ry"
      ],
      [
        "Ġo",
        "r"
      ],
      [
        "Ġ",
        "if"
      ],
      [
        "Ġex",
        "pl"
      ],
      [
        "b",
        "y"
      ],
      [
        "Ġe",
        "at"
      ],
      [
        "a",
        "ce"
      ],
      [
        "ot",
        "her"
      ],
      [
        "Ġhe",
        "ard"
      ],
      [
        "an",
        "k"
      ],
      [
        "t",
        "y"
      ],
      [
        "i",
        "on"
      ],
      [
        "d",
        "y"
      ],
      [
        "g",
        "e"
      ],
      [
        "Ġplay",
        "ed"
      ],
      [
        "et",
        "ter"
      ],
      [
        "Ġth",
        "is"
      ],
      [
        "Ġro",
        "om"
      ],
      [
        "Ġp",
        "ick"
      ],
      [
        "Ġbec",
        "ause"
      ],
      [
        "Ġg",
        "re"
      ],
      [
        "Ġst",
        "r"
      ],
      [
        "Ġe",
        "ach"
      ],
      [
        "he",
        "re"
      ],
      [
        "Ġj",
        "ust"
      ],
      [
        "ĠS",
        "ara"
      ],
      [
        "Ġp",
        "ret"
      ],
      [
        "Ġc",
        "om"
      ],
      [
        "Ġwa",
        "t"
      ],
      [
        "Ġof",
        "f"
      ],
      [
        "ot",
        "h"
      ],
      [
        "il",
        "e"
      ],
      [
        "a",
        "k"
      ],
      [
        "Ġhug",
        "ged"
      ],
      [
        "ĠW",
        "e"
      ],
      [
        "T",
        "om"
      ],
      [
        "Ġbo",
        "x"
      ],
      [
        "Ġne",
        "ed"
      ],
      [
        "i",
        "z"
      ],
      [
        "Ġl",
        "ong"
      ],
      [
        "Ġsm",
        "all"
      ],
      [
        "Ġj",
        "o"
      ],
      [
        "Ġb",
        "u"
      ],
      [
        "Ġu",
        "nt"
      ],
      [
        "Ġn",
        "ice"
      ],
      [
        "oug",
        "h"
      ],
      [
        "or",
        "t"
      ],
      [
        "M",
        "om"
      ],
      [
        "Ġunt",
        "il"
      ],
      [
        "Ġbe",
        "ar"
      ],
      [
        "u",
        "c"
      ],
      [
        "ĠA",
        "nna"
      ],
      [
        "v",
        "ing"
      ],
      [
        "Ġf",
        "o"
      ],
      [
        "Ġman",
        "y"
      ],
      [
        "s",
        "el"
      ],
      [
        "ĠJ",
        "ack"
      ],
      [
        "in",
        "e"
      ],
      [
        "im",
        "al"
      ],
      [
        "Ġan",
        "imal"
      ],
      [
        "Ġt",
        "ry"
      ],
      [
        "il",
        "d"
      ],
      [
        "s",
        "ed"
      ],
      [
        "Ġlearn",
        "ed"
      ],
      [
        "'",
        "m"
      ],
      [
        "Ġ",
        "end"
      ],
      [
        "Ġb",
        "etter"
      ],
      [
        "g",
        "ry"
      ],
      [
        "Ġ",
        "im"
      ],
      [
        "Ġk",
        "ind"
      ],
      [
        "e",
        "m"
      ],
      [
        "Ġa",
        "d"
      ],
      [
        "Ġc",
        "all"
      ],
      [
        "v",
        "ent"
      ],
      [
        "ur",
        "t"
      ],
      [
        "a",
        "ut"
      ],
      [
        "ĠJ",
        "o"
      ],
      [
        "ĠS",
        "o"
      ],
      [
        "p",
        "t"
      ],
      [
        "Ġfl",
        "ow"
      ],
      [
        "Ġd",
        "re"
      ],
      [
        "H",
        "e"
      ],
      [
        "u",
        "ll"
      ],
      [
        "Ġc",
        "le"
      ],
      [
        "ur",
        "n"
      ],
      [
        "b",
        "er"
      ],
      [
        "Ġb",
        "est"
      ],
      [
        "ad",
        "y"
      ],
      [
        "Ġlo",
        "ve"
      ],
      [
        "ar",
        "s"
      ],
      [
        "Ġe",
        "ven"
      ],
      [
        "Ġbe",
        "aut"
      ],
      [
        "Ġthan",
        "ked"
      ],
      [
        "Ġsk",
        "y"
      ],
      [
        "ur",
        "p"
      ],
      [
        "Ġb",
        "ra"
      ],
      [
        "ard",
        "en"
      ],
      [
        "Ġg",
        "arden"
      ],
      [
        "ll",
        "y"
      ],
      [
        "Ġs",
        "n"
      ],
      [
        "ĠH",
        "er"
      ],
      [
        "ĠA",
        "nd"
      ],
      [
        "Ġfa",
        "st"
      ],
      [
        "sel",
        "f"
      ],
      [
        "Ġlot",
        "s"
      ],
      [
        "Ġlaug",
        "hed"
      ],
      [
        "Ġb",
        "y"
      ],
      [
        "v",
        "es"
      ],
      [
        "Ġcare",
        "ful"
      ],
      [
        "Ġc",
        "he"
      ],
      [
        "Ġf",
        "i"
      ],
      [
        "Ġf",
        "am"
      ],
      [
        "le",
        "w"
      ],
      [
        "Ġj",
        "ump"
      ],
      [
        "Ġbeaut",
        "i"
      ],
      [
        "Ġd",
        "on"
      ],
      [
        "in",
        "y"
      ],
      [
        "ĠM",
        "ia"
      ],
      [
        "Ġwa",
        "y"
      ],
      [
        "Ġl",
        "oud"
      ],
      [
        "w",
        "n"
      ],
      [
        "Ġbeauti",
        "ful"
      ],
      [
        "Y",
        "es"
      ],
      [
        "i",
        "es"
      ],
      [
        "Ġ",
        "C"
      ],
      [
        "Ġg",
        "l"
      ],
      [
        "ĠF",
        "rom"
      ],
      [
        "h",
        "n"
      ],
      [
        "ĠThe",
        "n"
      ],
      [
        "Ġt",
        "e"
      ],
      [
        "âĢ",
        "Ŀ"
      ],
      [
        "Ġst",
        "ill"
      ],
      [
        "Ġr",
        "a"
      ],
      [
        "T",
        "h"
      ],
      [
        "âĢ",
        "ľ"
      ],
      [
        "Ġh",
        "ard"
      ],
      [
        "Ġw",
        "o"
      ],
      [
        "Ġc",
        "ome"
      ],
      [
        "Ġl",
        "ist"
      ],
      [
        "a",
        "se"
      ],
      [
        "Ġst",
        "ay"
      ],
      [
        "Ġanimal",
        "s"
      ],
      [
        "ĠH",
        "is"
      ],
      [
        "ec",
        "t"
      ],
      [
        "n",
        "ing"
      ],
      [
        "I",
        "t"
      ],
      [
        "Ġsa",
        "fe"
      ],
      [
        "Ġh",
        "urt"
      ],
      [
        "Ġu",
        "nder"
      ],
      [
        "Ġre",
        "m"
      ],
      [
        "a",
        "st"
      ],
      [
        "Ġco",
        "l"
      ],
      [
        "c",
        "t"
      ],
      [
        "Ġli",
        "ved"
      ],
      [
        "Ġb",
        "oth"
      ],
      [
        "an",
        "e"
      ],
      [
        "Ġtw",
        "o"
      ],
      [
        "he",
        "s"
      ],
      [
        "re",
        "e"
      ],
      [
        "Ġfam",
        "ily"
      ],
      [
        "Ġc",
        "u"
      ],
      [
        "oo",
        "l"
      ],
      [
        "Ġbra",
        "ve"
      ],
      [
        "op",
        "le"
      ],
      [
        "Ġim",
        "p"
      ],
      [
        "Ġf",
        "in"
      ],
      [
        "W",
        "hen"
      ],
      [
        "Ġit",
        "s"
      ],
      [
        "o",
        "b"
      ],
      [
        "Ġl",
        "et"
      ],
      [
        "Ġf",
        "lew"
      ],
      [
        "Ġke",
        "pt"
      ],
      [
        "is",
        "hed"
      ],
      [
        "Ġb",
        "ad"
      ],
      [
        "uc",
        "y"
      ],
      [
        "urp",
        "r"
      ],
      [
        "T",
        "im"
      ],
      [
        "ig",
        "h"
      ],
      [
        "Ġwal",
        "ked"
      ],
      [
        "Ġpe",
        "ople"
      ],
      [
        "Ġst",
        "or"
      ],
      [
        "Ġs",
        "urpr"
      ],
      [
        "ĠW",
        "hen"
      ],
      [
        "Ġcall",
        "ed"
      ],
      [
        "f",
        "ore"
      ],
      [
        "Ġso",
        "on"
      ],
      [
        "l",
        "ed"
      ],
      [
        "Ġf",
        "ore"
      ],
      [
        "Ġb",
        "ook"
      ],
      [
        "Ġd",
        "an"
      ],
      [
        "b",
        "e"
      ],
      [
        "Ġr",
        "ed"
      ],
      [
        "Ġf",
        "ly"
      ],
      [
        "k",
        "ay"
      ],
      [
        "Ġsh",
        "ould"
      ],
      [
        "Ġ",
        "âĢľ"
      ],
      [
        "o",
        "ck"
      ],
      [
        "is",
        "ed"
      ],
      [
        "Ġro",
        "ck"
      ],
      [
        "Ġp",
        "ic"
      ],
      [
        "Ġgo",
        "ing"
      ],
      [
        "Ġad",
        "vent"
      ],
      [
        "Ġcle",
        "an"
      ],
      [
        "Ġ",
        "P"
      ],
      [
        "Ġan",
        "gry"
      ],
      [
        "Ġsh",
        "are"
      ],
      [
        "um",
        "my"
      ],
      [
        "il",
        "ly"
      ],
      [
        "Ġexpl",
        "ore"
      ],
      [
        "Ġop",
        "ened"
      ],
      [
        "Ġbe",
        "fore"
      ],
      [
        "Ġke",
        "ep"
      ],
      [
        "i",
        "p"
      ],
      [
        "L",
        "et"
      ],
      [
        "Ġc",
        "on"
      ],
      [
        "Ġn",
        "ow"
      ],
      [
        "Ġpret",
        "ty"
      ],
      [
        "N",
        "o"
      ],
      [
        "Ġc",
        "re"
      ],
      [
        "Ġst",
        "o"
      ],
      [
        "Ġdo",
        "or"
      ],
      [
        "Ġw",
        "ind"
      ],
      [
        "ag",
        "e"
      ],
      [
        "Ġre",
        "al"
      ],
      [
        "Ġgr",
        "ound"
      ],
      [
        "ar",
        "y"
      ],
      [
        "Ġdo",
        "ll"
      ],
      [
        "Ġsh",
        "iny"
      ],
      [
        "Ġ",
        "ide"
      ],
      [
        "Ġd",
        "ra"
      ],
      [
        "Ġno",
        "ise"
      ],
      [
        "Ġfeel",
        "ing"
      ],
      [
        "i",
        "ed"
      ],
      [
        "Ġf",
        "r"
      ],
      [
        "Ġf",
        "ar"
      ],
      [
        "Ġc",
        "ry"
      ],
      [
        "dd",
        "ed"
      ],
      [
        "Ġt",
        "urn"
      ],
      [
        "Ġe",
        "y"
      ],
      [
        "o",
        "on"
      ],
      [
        "Ġwa",
        "r"
      ],
      [
        "o",
        "y"
      ],
      [
        "Ġide",
        "a"
      ],
      [
        "t",
        "hing"
      ],
      [
        "Ġcol",
        "or"
      ],
      [
        "Ġpick",
        "ed"
      ],
      [
        "t",
        "h"
      ],
      [
        "Ġn",
        "ext"
      ],
      [
        "Ġu",
        "n"
      ],
      [
        "Ġwal",
        "king"
      ],
      [
        "le",
        "s"
      ],
      [
        "Ġwh",
        "ile"
      ],
      [
        "ĠL",
        "ucy"
      ],
      [
        "Ġth",
        "r"
      ],
      [
        "âĢ",
        "Ļ"
      ],
      [
        "im",
        "b"
      ],
      [
        "Ġadvent",
        "ure"
      ],
      [
        "t",
        "ure"
      ],
      [
        "s",
        "o"
      ],
      [
        "Ġm",
        "a"
      ],
      [
        "Ġsmil",
        "e"
      ],
      [
        "ic",
        "ed"
      ],
      [
        "Ġcl",
        "imb"
      ],
      [
        "Ġb",
        "ed"
      ],
      [
        "u",
        "ch"
      ],
      [
        "B",
        "en"
      ],
      [
        "Ġal",
        "so"
      ],
      [
        "i",
        "ous"
      ],
      [
        "g",
        "er"
      ],
      [
        "W",
        "hat"
      ],
      [
        "e",
        "et"
      ],
      [
        "T",
        "hat"
      ],
      [
        "j",
        "oy"
      ],
      [
        "f",
        "f"
      ],
      [
        "Ġbe",
        "ing"
      ],
      [
        "Ġw",
        "r"
      ],
      [
        "Ġloo",
        "king"
      ],
      [
        "a",
        "c"
      ],
      [
        "Ġsto",
        "pped"
      ],
      [
        "Ġd",
        "el"
      ],
      [
        "Ġclo",
        "s"
      ],
      [
        "Ġd",
        "if"
      ],
      [
        "em",
        "ber"
      ],
      [
        "Ġno",
        "dded"
      ],
      [
        "t",
        "ing"
      ],
      [
        "Ġf",
        "ood"
      ],
      [
        "ĠS",
        "uddenly"
      ],
      [
        "Ġpic",
        "ture"
      ],
      [
        "Ġg",
        "ive"
      ],
      [
        "ĠD",
        "ad"
      ],
      [
        "ug",
        "ht"
      ],
      [
        "Ġwa",
        "it"
      ],
      [
        "k",
        "es"
      ],
      [
        "Ġqu",
        "ick"
      ],
      [
        "Ġen",
        "joy"
      ],
      [
        "Ġey",
        "es"
      ],
      [
        "Ġe",
        "ver"
      ],
      [
        "Ġo",
        "wn"
      ],
      [
        "Ġgre",
        "at"
      ],
      [
        "Ġha",
        "s"
      ],
      [
        "Ġtr",
        "uck"
      ],
      [
        "Ġnot",
        "iced"
      ],
      [
        "Ġa",
        "fter"
      ],
      [
        "Ġg",
        "i"
      ],
      [
        "Ġ",
        "G"
      ],
      [
        "ma",
        "z"
      ],
      [
        "a",
        "ble"
      ],
      [
        "Ġa",
        "maz"
      ],
      [
        "S",
        "uddenly"
      ],
      [
        "iz",
        "ed"
      ],
      [
        "Th",
        "ank"
      ],
      [
        "Ġrem",
        "ember"
      ],
      [
        "Ġwal",
        "k"
      ],
      [
        "Ġr",
        "ain"
      ],
      [
        "Ġb",
        "re"
      ],
      [
        "Ġre",
        "pl"
      ],
      [
        "Ġfore",
        "st"
      ],
      [
        "Ġd",
        "is"
      ],
      [
        "Ġlist",
        "en"
      ],
      [
        "Ġto",
        "w"
      ],
      [
        "Ġevery",
        "one"
      ],
      [
        "Ġth",
        "ink"
      ],
      [
        "ay",
        "be"
      ],
      [
        "Ġf",
        "ish"
      ],
      [
        "Ġv",
        "o"
      ],
      [
        "Ġwo",
        "nder"
      ],
      [
        "ĠS",
        "p"
      ],
      [
        "Ġa",
        "pp"
      ],
      [
        "Ġbl",
        "ue"
      ],
      [
        "Ġimp",
        "ort"
      ],
      [
        "t",
        "ed"
      ],
      [
        "g",
        "an"
      ],
      [
        "Ġbr",
        "o"
      ],
      [
        "ir",
        "st"
      ],
      [
        "Ġshow",
        "ed"
      ],
      [
        "Ġne",
        "ar"
      ],
      [
        "Ġhand",
        "s"
      ],
      [
        "Ġa",
        "c"
      ],
      [
        "bb",
        "it"
      ],
      [
        "Ġflow",
        "ers"
      ],
      [
        "Ġstr",
        "ong"
      ],
      [
        "Ġd",
        "e"
      ],
      [
        "Ġwor",
        "k"
      ],
      [
        "S",
        "he"
      ],
      [
        "Ġbr",
        "ight"
      ],
      [
        "Ġimport",
        "ant"
      ],
      [
        "Ġsl",
        "ide"
      ],
      [
        "Ġquick",
        "ly"
      ],
      [
        "bb",
        "ed"
      ],
      [
        "by",
        "e"
      ],
      [
        "Ġwat",
        "ch"
      ],
      [
        "Ġsh",
        "out"
      ],
      [
        "Ġra",
        "bbit"
      ],
      [
        "Ġr",
        "ight"
      ],
      [
        "Ġrepl",
        "ied"
      ],
      [
        "ll",
        "ow"
      ],
      [
        "Ġwat",
        "ched"
      ],
      [
        "Ġhe",
        "ad"
      ],
      [
        "fe",
        "re"
      ],
      [
        "Ġs",
        "ound"
      ],
      [
        "Ġs",
        "ure"
      ],
      [
        "Ġdif",
        "fere"
      ],
      [
        "Ġy",
        "e"
      ],
      [
        "Ġt",
        "al"
      ],
      [
        "Ġst",
        "ore"
      ],
      [
        "d",
        "ay"
      ],
      [
        "Ġs",
        "qu"
      ],
      [
        "S",
        "o"
      ],
      [
        "er",
        "ed"
      ],
      [
        "Ġpl",
        "ace"
      ],
      [
        "Ġm",
        "or"
      ],
      [
        "Ġu",
        "s"
      ],
      [
        "Ġbo",
        "at"
      ],
      [
        "Ġbe",
        "en"
      ],
      [
        "Ġme",
        "an"
      ],
      [
        "Ġw",
        "here"
      ],
      [
        "Ġu",
        "se"
      ],
      [
        "Ġbec",
        "ame"
      ],
      [
        "ĠB",
        "ob"
      ],
      [
        "an",
        "ge"
      ],
      [
        "at",
        "h"
      ],
      [
        "Ġdre",
        "ss"
      ],
      [
        "Ġt",
        "ra"
      ],
      [
        "Ġo",
        "kay"
      ],
      [
        "Ġst",
        "ick"
      ],
      [
        "Ġfo",
        "llow"
      ],
      [
        "Ġgood",
        "bye"
      ],
      [
        "Ġch",
        "ild"
      ],
      [
        "n",
        "g"
      ],
      [
        "Ġclos",
        "er"
      ],
      [
        "Ġy",
        "ell"
      ],
      [
        "le",
        "ase"
      ],
      [
        "Ġ",
        "N"
      ],
      [
        "Ġdiffere",
        "nt"
      ],
      [
        "Ġwar",
        "m"
      ],
      [
        "Ġh",
        "igh"
      ],
      [
        "Ġm",
        "ag"
      ],
      [
        "Ġas",
        "k"
      ],
      [
        "Ġfa",
        "ce"
      ],
      [
        "Ġcu",
        "ri"
      ],
      [
        "a",
        "ught"
      ],
      [
        "Ġvo",
        "ice"
      ],
      [
        "W",
        "e"
      ],
      [
        "c",
        "o"
      ],
      [
        "Ġn",
        "ight"
      ],
      [
        "a",
        "ched"
      ],
      [
        "ĠSp",
        "ot"
      ],
      [
        "Ġ",
        "R"
      ],
      [
        "ir",
        "ed"
      ],
      [
        "Ġfor",
        "g"
      ],
      [
        "Ġbe",
        "l"
      ],
      [
        "J",
        "o"
      ],
      [
        "Ġc",
        "r"
      ],
      [
        "le",
        "ep"
      ],
      [
        "ĠS",
        "ue"
      ],
      [
        "Ġh",
        "op"
      ],
      [
        "ĠMom",
        "my"
      ],
      [
        "Ġp",
        "a"
      ],
      [
        "ou",
        "nt"
      ],
      [
        "Ġ",
        "our"
      ],
      [
        "Ġcuri",
        "ous"
      ],
      [
        "Ġp",
        "u"
      ],
      [
        "Ġth",
        "ree"
      ],
      [
        "Ġt",
        "ell"
      ],
      [
        "m",
        "ore"
      ],
      [
        "Ġany",
        "more"
      ],
      [
        "Ġfa",
        "v"
      ],
      [
        "Ġc",
        "ook"
      ],
      [
        "Ġc",
        "ake"
      ],
      [
        "ĠJo",
        "hn"
      ],
      [
        "Ġgra",
        "bbed"
      ],
      [
        "Ġcon",
        "t"
      ],
      [
        "it",
        "c"
      ],
      [
        "Ġbut",
        "ter"
      ],
      [
        "Ġdo",
        "es"
      ],
      [
        "nd",
        "ma"
      ],
      [
        "L",
        "ook"
      ],
      [
        "Ġop",
        "en"
      ],
      [
        "Ġf",
        "irst"
      ],
      [
        "H",
        "er"
      ],
      [
        "Ġp",
        "er"
      ],
      [
        "Ġ",
        "z"
      ],
      [
        "Ġb",
        "it"
      ],
      [
        "Ġa",
        "m"
      ],
      [
        "Ġp",
        "ain"
      ],
      [
        "S",
        "ara"
      ],
      [
        "Ġhelp",
        "ed"
      ],
      [
        "Ġle",
        "a"
      ],
      [
        "im",
        "es"
      ],
      [
        "A",
        "nna"
      ],
      [
        "or",
        "n"
      ],
      [
        "Ġb",
        "us"
      ],
      [
        "un",
        "ny"
      ],
      [
        "Ġp",
        "ull"
      ],
      [
        "Ġb",
        "a"
      ],
      [
        "ĠEvery",
        "one"
      ],
      [
        "ĠJ",
        "ane"
      ],
      [
        "A",
        "fter"
      ],
      [
        "Ġbird",
        "s"
      ],
      [
        "is",
        "y"
      ],
      [
        "Ġfe",
        "ll"
      ],
      [
        "Ġjump",
        "ed"
      ],
      [
        "ĠT",
        "h"
      ],
      [
        "Ġsw",
        "eet"
      ],
      [
        "Ġk",
        "id"
      ],
      [
        "pp",
        "y"
      ],
      [
        "Ġhapp",
        "ened"
      ],
      [
        "Ġgra",
        "ss"
      ],
      [
        "Ġbr",
        "other"
      ],
      [
        "Ġon",
        "ly"
      ],
      [
        "Ġs",
        "ing"
      ],
      [
        "itc",
        "hen"
      ],
      [
        "Ġk",
        "itchen"
      ],
      [
        "Ġre",
        "ached"
      ],
      [
        "is",
        "s"
      ],
      [
        "Ġm",
        "on"
      ],
      [
        "il",
        "a"
      ],
      [
        "Ġreal",
        "ized"
      ],
      [
        "Ġsa",
        "nd"
      ],
      [
        "Ġhe",
        "re"
      ],
      [
        "Ġbl",
        "ock"
      ],
      [
        "Ġgl",
        "ad"
      ],
      [
        "Ġfl",
        "o"
      ],
      [
        "ĠA",
        "s"
      ],
      [
        "ĠSara",
        "h"
      ],
      [
        "Ġstor",
        "y"
      ],
      [
        "Ġd",
        "r"
      ],
      [
        "nt",
        "s"
      ],
      [
        "Ġthr",
        "ough"
      ],
      [
        "C",
        "an"
      ],
      [
        "Ġr",
        "u"
      ],
      [
        "Ġat",
        "e"
      ],
      [
        "Ġst",
        "op"
      ],
      [
        "Ġre",
        "st"
      ],
      [
        "Ġha",
        "ving"
      ],
      [
        "Ġy",
        "ummy"
      ],
      [
        "Ġfi",
        "re"
      ],
      [
        "Ġbe",
        "gan"
      ],
      [
        "z",
        "y"
      ],
      [
        "Ġbe",
        "h"
      ],
      [
        "Ġre",
        "ally"
      ],
      [
        "Ġre",
        "ady"
      ],
      [
        "w",
        "here"
      ],
      [
        "Ġm",
        "um"
      ],
      [
        "Ġg",
        "ame"
      ],
      [
        "Ġt",
        "ri"
      ],
      [
        "at",
        "er"
      ],
      [
        "Ġp",
        "are"
      ],
      [
        "Ġhim",
        "self"
      ],
      [
        "Ġpr",
        "in"
      ],
      [
        "Ġwor",
        "ld"
      ],
      [
        "Ġso",
        "ft"
      ],
      [
        "Ġm",
        "ess"
      ],
      [
        "fu",
        "lly"
      ],
      [
        "Ġt",
        "ired"
      ],
      [
        "Ġse",
        "es"
      ],
      [
        "at",
        "her"
      ],
      [
        "Ġdra",
        "w"
      ],
      [
        "Ġshout",
        "ed"
      ],
      [
        "Ġl",
        "ess"
      ],
      [
        "Ġmag",
        "ic"
      ],
      [
        "Ġunder",
        "st"
      ],
      [
        "Ġl",
        "ady"
      ],
      [
        "Ġfav",
        "or"
      ],
      [
        "o",
        "lly"
      ],
      [
        "Ġd",
        "one"
      ],
      [
        "st",
        "er"
      ],
      [
        "Ġth",
        "ing"
      ],
      [
        "Ġf",
        "ill"
      ],
      [
        "Ġfavor",
        "ite"
      ],
      [
        "Ġma",
        "king"
      ],
      [
        "ĠL",
        "et"
      ],
      [
        "Ġse",
        "en"
      ],
      [
        "Ġwa",
        "ved"
      ],
      [
        "u",
        "ff"
      ],
      [
        "in",
        "s"
      ],
      [
        "s",
        "h"
      ],
      [
        "Ġst",
        "e"
      ],
      [
        "Ġu",
        "sed"
      ],
      [
        "'",
        "re"
      ],
      [
        "Ġbutter",
        "f"
      ],
      [
        "Ġfi",
        "x"
      ],
      [
        "Ġcom",
        "ing"
      ],
      [
        "Ġh",
        "at"
      ],
      [
        "Ġc",
        "ut"
      ],
      [
        "Ġdel",
        "ic"
      ],
      [
        "k",
        "en"
      ],
      [
        "Ġb",
        "unny"
      ],
      [
        "Ġpo",
        "nd"
      ],
      [
        "ĠJo",
        "e"
      ],
      [
        "Ġta",
        "st"
      ],
      [
        "Ġm",
        "ouse"
      ],
      [
        "Ġwh",
        "y"
      ],
      [
        "Mom",
        "my"
      ],
      [
        "Ġd",
        "uck"
      ],
      [
        "Ġto",
        "p"
      ],
      [
        "Ġkid",
        "s"
      ],
      [
        "Ġwor",
        "ry"
      ],
      [
        "Ġflow",
        "er"
      ],
      [
        "Ġpare",
        "nts"
      ],
      [
        "Ġp",
        "art"
      ],
      [
        "b",
        "o"
      ],
      [
        "i",
        "ent"
      ],
      [
        "Ġcat",
        "ch"
      ],
      [
        "Ġfun",
        "ny"
      ],
      [
        "Jo",
        "hn"
      ],
      [
        "Ġp",
        "rom"
      ],
      [
        "Ġp",
        "ap"
      ],
      [
        "m",
        "er"
      ],
      [
        "Ġnam",
        "e"
      ],
      [
        "i",
        "ver"
      ],
      [
        "re",
        "l"
      ],
      [
        "Ġsw",
        "im"
      ],
      [
        "A",
        "s"
      ],
      [
        "a",
        "isy"
      ],
      [
        "a",
        "ir"
      ],
      [
        "ig",
        "n"
      ],
      [
        "Tim",
        "my"
      ],
      [
        "Ġpret",
        "end"
      ],
      [
        "Ġf",
        "ull"
      ],
      [
        "Ġc",
        "ool"
      ],
      [
        "ĠD",
        "o"
      ],
      [
        "at",
        "ion"
      ],
      [
        "Ġan",
        "other"
      ],
      [
        "ĠT",
        "hat"
      ],
      [
        "Ġwor",
        "ked"
      ],
      [
        "Ġto",
        "uch"
      ],
      [
        "ak",
        "es"
      ],
      [
        "Ġho",
        "pped"
      ],
      [
        "Ġl",
        "ight"
      ],
      [
        "Ġf",
        "ro"
      ],
      [
        "W",
        "ow"
      ],
      [
        "one",
        "y"
      ],
      [
        "ed",
        "dy"
      ],
      [
        "Ġsurpr",
        "ise"
      ],
      [
        "Ġp",
        "us"
      ],
      [
        "Ġtre",
        "es"
      ],
      [
        "Ġ",
        "-"
      ],
      [
        "Ġc",
        "ra"
      ],
      [
        "Ġlook",
        "s"
      ],
      [
        "Ġha",
        "ir"
      ],
      [
        "ĠC",
        "an"
      ],
      [
        "Ġd",
        "in"
      ],
      [
        "Ġd",
        "ro"
      ],
      [
        "Ġremember",
        "ed"
      ],
      [
        "u",
        "ed"
      ],
      [
        "Ġrun",
        "ning"
      ],
      [
        "Ġye",
        "ars"
      ],
      [
        "Ġsp",
        "ot"
      ],
      [
        "Ġgre",
        "en"
      ],
      [
        "el",
        "y"
      ],
      [
        "ard",
        "s"
      ],
      [
        "Ġc",
        "ried"
      ],
      [
        "Ġsm",
        "ell"
      ],
      [
        "Ġs",
        "et"
      ],
      [
        "Ġcar",
        "s"
      ],
      [
        "Ġthan",
        "k"
      ],
      [
        "Ġd",
        "ark"
      ],
      [
        "D",
        "on"
      ],
      [
        "Ġw",
        "ood"
      ],
      [
        "Ġless",
        "on"
      ],
      [
        "Ġb",
        "ag"
      ],
      [
        "Ġsh",
        "o"
      ],
      [
        "h",
        "y"
      ],
      [
        "Ġs",
        "leep"
      ],
      [
        "Ġhapp",
        "ily"
      ],
      [
        "and",
        "y"
      ],
      [
        "Ġs",
        "at"
      ],
      [
        "Ġsl",
        "ow"
      ],
      [
        "Ġbeh",
        "ind"
      ],
      [
        "ss",
        "ed"
      ],
      [
        "Ġper",
        "f"
      ],
      [
        "Ġcare",
        "fully"
      ],
      [
        "Ġyell",
        "ow"
      ],
      [
        "Ġre",
        "ad"
      ],
      [
        "\"",
        "."
      ],
      [
        "Ġneed",
        "ed"
      ],
      [
        "Ġd",
        "ri"
      ],
      [
        "ĠI",
        "n"
      ],
      [
        "Ġho",
        "ld"
      ],
      [
        "u",
        "l"
      ],
      [
        "Ġwind",
        "ow"
      ],
      [
        "Ġflo",
        "or"
      ],
      [
        "Ġfin",
        "ished"
      ],
      [
        "Ġb",
        "ow"
      ],
      [
        "i",
        "ke"
      ],
      [
        "ar",
        "ing"
      ],
      [
        "Ġt",
        "all"
      ],
      [
        "re",
        "n"
      ],
      [
        "Ġsurpr",
        "ised"
      ],
      [
        "Ġcl",
        "a"
      ],
      [
        "Ġdo",
        "ing"
      ],
      [
        "Ġco",
        "ld"
      ],
      [
        "Ġbutterf",
        "ly"
      ],
      [
        "Ġmo",
        "ve"
      ],
      [
        "Ġa",
        "ir"
      ],
      [
        "Ġenjoy",
        "ed"
      ],
      [
        "Ġho",
        "le"
      ],
      [
        "Ġw",
        "ished"
      ],
      [
        "S",
        "am"
      ],
      [
        "in",
        "ally"
      ],
      [
        "Ġhe",
        "ld"
      ],
      [
        "Ġbu",
        "y"
      ],
      [
        "ĠA",
        "fter"
      ],
      [
        "Ġpap",
        "er"
      ],
      [
        "Ġlo",
        "st"
      ],
      [
        "Ġblock",
        "s"
      ],
      [
        "u",
        "it"
      ],
      [
        "Ġany",
        "thing"
      ],
      [
        "Ġdelic",
        "ious"
      ],
      [
        "Ġdre",
        "am"
      ],
      [
        "Ġar",
        "ri"
      ],
      [
        "Ġsw",
        "ing"
      ],
      [
        "Ġ",
        "ice"
      ],
      [
        "Ġle",
        "ft"
      ],
      [
        "Ġlaug",
        "h"
      ],
      [
        "Ġher",
        "self"
      ],
      [
        "Ġli",
        "on"
      ],
      [
        "Ġre",
        "l"
      ],
      [
        "en",
        "s"
      ],
      [
        "Ġcont",
        "in"
      ],
      [
        "Ġwr",
        "ong"
      ],
      [
        "Ġfa",
        "ir"
      ],
      [
        "Ġfro",
        "g"
      ],
      [
        "Ġh",
        "ill"
      ],
      [
        "in",
        "ed"
      ],
      [
        "Ġchild",
        "ren"
      ],
      [
        "ie",
        "ld"
      ],
      [
        "Ġp",
        "re"
      ],
      [
        "Ġfollow",
        "ed"
      ],
      [
        "Ġh",
        "un"
      ],
      [
        "Ġli",
        "kes"
      ],
      [
        "Ġclo",
        "se"
      ],
      [
        "Ġfriend",
        "ly"
      ],
      [
        "re",
        "ed"
      ],
      [
        "re",
        "am"
      ],
      [
        "c",
        "ess"
      ],
      [
        "Ġarri",
        "ved"
      ],
      [
        "Ġa",
        "ble"
      ],
      [
        "Ġforg",
        "ot"
      ],
      [
        "Ġh",
        "id"
      ],
      [
        "Ġh",
        "ot"
      ],
      [
        "Ġc",
        "ast"
      ],
      [
        "Ġd",
        "ir"
      ],
      [
        "Ġwonder",
        "ful"
      ],
      [
        "Ġhe",
        "ar"
      ],
      [
        "ĠBen",
        "ny"
      ],
      [
        "Ġfill",
        "ed"
      ],
      [
        "ĠS",
        "ally"
      ],
      [
        "Ġt",
        "ight"
      ],
      [
        "Ġ",
        "el"
      ],
      [
        "Ġg",
        "one"
      ],
      [
        "Ġbu",
        "ild"
      ],
      [
        "Ġba",
        "by"
      ],
      [
        "as",
        "ure"
      ],
      [
        "Ġunderst",
        "and"
      ],
      [
        "Ġm",
        "ight"
      ],
      [
        "Ġar",
        "m"
      ],
      [
        "Ġta",
        "ble"
      ],
      [
        "Ġb",
        "ug"
      ],
      [
        "Ġcre",
        "at"
      ],
      [
        "l",
        "f"
      ],
      [
        "The",
        "n"
      ],
      [
        "Ġsn",
        "ow"
      ],
      [
        "Ġm",
        "at"
      ],
      [
        "n",
        "er"
      ],
      [
        "H",
        "ell"
      ],
      [
        "Hell",
        "o"
      ],
      [
        "Ġbook",
        "s"
      ],
      [
        "ĠD",
        "aisy"
      ],
      [
        "Ġcontin",
        "ued"
      ],
      [
        "Ġel",
        "se"
      ],
      [
        "i",
        "ch"
      ],
      [
        "Ġg",
        "ent"
      ],
      [
        "ir",
        "rel"
      ],
      [
        "!",
        "âĢĿ"
      ],
      [
        "J",
        "ack"
      ],
      [
        "d",
        "s"
      ],
      [
        "ĠE",
        "m"
      ],
      [
        "Ġy",
        "es"
      ],
      [
        "e",
        "y"
      ],
      [
        "ro",
        "ss"
      ],
      [
        "Ġcolor",
        "s"
      ],
      [
        "Ġstay",
        "ed"
      ],
      [
        "a",
        "v"
      ],
      [
        "F",
        "rom"
      ],
      [
        "ĠN",
        "ow"
      ],
      [
        "Ġfin",
        "ally"
      ],
      [
        "Ġs",
        "ong"
      ],
      [
        "Ġp",
        "at"
      ],
      [
        "ĠThe",
        "re"
      ],
      [
        "Ġwa",
        "ll"
      ],
      [
        "Ġlea",
        "ves"
      ],
      [
        "Ġbro",
        "ken"
      ],
      [
        "Ġsome",
        "one"
      ],
      [
        "Ġp",
        "lease"
      ],
      [
        "Ġen",
        "ough"
      ],
      [
        "Ġmor",
        "ning"
      ],
      [
        "Ġget",
        "ting"
      ],
      [
        "Ġsqu",
        "irrel"
      ],
      [
        "ro",
        "om"
      ],
      [
        "Ġc",
        "ount"
      ],
      [
        "Ġag",
        "reed"
      ],
      [
        "Ġamaz",
        "ing"
      ],
      [
        "Ġv",
        "is"
      ],
      [
        "s",
        "p"
      ],
      [
        "g",
        "on"
      ],
      [
        "as",
        "h"
      ],
      [
        "Ġp",
        "ink"
      ],
      [
        "Ġsc",
        "ary"
      ],
      [
        "as",
        "k"
      ],
      [
        "Ġcom",
        "p"
      ],
      [
        "'",
        "ll"
      ],
      [
        "Ġbre",
        "ak"
      ],
      [
        "Ġperf",
        "ect"
      ],
      [
        "Ġmom",
        "ent"
      ],
      [
        "Ġm",
        "ar"
      ],
      [
        ".",
        "âĢĿ"
      ],
      [
        "ĠB",
        "illy"
      ],
      [
        "ic",
        "y"
      ],
      [
        "A",
        "t"
      ],
      [
        "Ġfe",
        "w"
      ],
      [
        "Ġpo",
        "in"
      ],
      [
        "Ġtry",
        "ing"
      ],
      [
        "Ġm",
        "other"
      ],
      [
        "Ġcast",
        "le"
      ],
      [
        "Ġj",
        "u"
      ],
      [
        "Ġother",
        "s"
      ],
      [
        "Ġpu",
        "ppy"
      ],
      [
        "Ġgra",
        "ndma"
      ],
      [
        "o",
        "om"
      ],
      [
        "an",
        "ce"
      ],
      [
        "r",
        "ot"
      ],
      [
        "Ġp",
        "i"
      ],
      [
        "Ġdad",
        "dy"
      ],
      [
        "am",
        "a"
      ],
      [
        "Ġdin",
        "ner"
      ],
      [
        "Ġwant",
        "s"
      ],
      [
        "c",
        "ed"
      ],
      [
        "r",
        "ow"
      ],
      [
        "Ġbe",
        "ach"
      ],
      [
        "Ġmu",
        "s"
      ],
      [
        "Ġwas",
        "n"
      ],
      [
        "Ġjo",
        "y"
      ],
      [
        "ri",
        "es"
      ],
      [
        "ĠL",
        "ila"
      ],
      [
        "Ġw",
        "et"
      ],
      [
        "Ġf",
        "ight"
      ],
      [
        "Ġhun",
        "gry"
      ],
      [
        "Ġturn",
        "ed"
      ],
      [
        "Ġ",
        "K"
      ],
      [
        "Ġbr",
        "ought"
      ],
      [
        "ou",
        "p"
      ],
      [
        "Ġm",
        "et"
      ],
      [
        "Ġcre",
        "am"
      ],
      [
        "or",
        "ing"
      ],
      [
        "Ġstr",
        "ange"
      ],
      [
        "Ġsomet",
        "imes"
      ],
      [
        "Ġsa",
        "il"
      ],
      [
        "r",
        "ed"
      ],
      [
        "Ġclimb",
        "ed"
      ],
      [
        "Ġf",
        "ur"
      ],
      [
        "on",
        "s"
      ],
      [
        "ĠTh",
        "is"
      ],
      [
        "Ġlist",
        "ened"
      ],
      [
        "e",
        "e"
      ],
      [
        "Ġro",
        "ll"
      ],
      [
        "Ġwh",
        "ite"
      ],
      [
        "Ġpicture",
        "s"
      ],
      [
        "Ġf",
        "all"
      ],
      [
        "O",
        "K"
      ],
      [
        "en",
        "ce"
      ],
      [
        "uff",
        "y"
      ],
      [
        "Ġcook",
        "ies"
      ],
      [
        "w",
        "l"
      ],
      [
        "Ġse",
        "ar"
      ],
      [
        "Ġball",
        "oon"
      ],
      [
        "m",
        "an"
      ],
      [
        "Ġsp",
        "l"
      ],
      [
        "Ġsp",
        "ark"
      ],
      [
        "ĠTom",
        "my"
      ],
      [
        "at",
        "ed"
      ],
      [
        "Ġcl",
        "ot"
      ],
      [
        "Ġevery",
        "thing"
      ],
      [
        "H",
        "is"
      ],
      [
        "uck",
        "y"
      ],
      [
        "Ġclot",
        "hes"
      ],
      [
        "Ġwood",
        "s"
      ],
      [
        "e",
        "ver"
      ],
      [
        "ĠT",
        "o"
      ],
      [
        "Th",
        "is"
      ],
      [
        "Ġde",
        "ep"
      ],
      [
        "Ġamaz",
        "ed"
      ],
      [
        "Ġpo",
        "l"
      ],
      [
        "am",
        "p"
      ],
      [
        "ĠW",
        "hat"
      ],
      [
        "pp",
        "ing"
      ],
      [
        "Ġtal",
        "k"
      ],
      [
        "d",
        "er"
      ],
      [
        "Ġr",
        "ide"
      ],
      [
        "ĠJ",
        "en"
      ],
      [
        "et",
        "er"
      ],
      [
        "Ġth",
        "re"
      ],
      [
        "ow",
        "er"
      ],
      [
        "Ġta",
        "il"
      ],
      [
        "is",
        "ter"
      ],
      [
        "ĠM",
        "aybe"
      ],
      [
        "Ġsmil",
        "es"
      ],
      [
        "o",
        "s"
      ],
      [
        "Ġal",
        "one"
      ],
      [
        "Ġwa",
        "ited"
      ],
      [
        "Ġm",
        "akes"
      ],
      [
        "m",
        "ed"
      ],
      [
        "ĠG",
        "ra"
      ],
      [
        "Ġgr",
        "ow"
      ],
      [
        "Ġs",
        "it"
      ],
      [
        "Ġp",
        "et"
      ],
      [
        "Ġp",
        "ie"
      ],
      [
        "ct",
        "or"
      ],
      [
        "Ġvis",
        "it"
      ],
      [
        "Ġmus",
        "ic"
      ],
      [
        "ke",
        "y"
      ],
      [
        "Ġl",
        "ake"
      ],
      [
        "Ġdan",
        "ger"
      ],
      [
        "el",
        "c"
      ],
      [
        "Ġw",
        "on"
      ],
      [
        "ot",
        "t"
      ],
      [
        "Ġtre",
        "at"
      ],
      [
        "m",
        "e"
      ],
      [
        "Ġpl",
        "an"
      ],
      [
        "Ġle",
        "ave"
      ],
      [
        "Ġpull",
        "ed"
      ],
      [
        "Ġs",
        "ide"
      ],
      [
        "Ġcl",
        "oud"
      ],
      [
        "ug",
        "g"
      ],
      [
        "Ġs",
        "illy"
      ],
      [
        "O",
        "h"
      ],
      [
        "Ġfly",
        "ing"
      ],
      [
        "i",
        "x"
      ],
      [
        "op",
        "e"
      ],
      [
        "z",
        "z"
      ],
      [
        "Ġla",
        "nd"
      ],
      [
        "th",
        "y"
      ],
      [
        "Ġf",
        "ield"
      ],
      [
        "an",
        "g"
      ],
      [
        "Ġh",
        "ide"
      ],
      [
        "Ġtow",
        "ards"
      ],
      [
        "Ġbel",
        "ie"
      ],
      [
        "Ġfo",
        "x"
      ],
      [
        "Ġprom",
        "ised"
      ],
      [
        "M",
        "ax"
      ],
      [
        "Ġt",
        "eddy"
      ],
      [
        "Ġown",
        "er"
      ],
      [
        "ĠA",
        "my"
      ],
      [
        "ain",
        "ed"
      ],
      [
        "Ġsh",
        "ared"
      ],
      [
        "am",
        "es"
      ],
      [
        "Ġbig",
        "ger"
      ],
      [
        "or",
        "m"
      ],
      [
        "u",
        "ally"
      ],
      [
        "Ġs",
        "ec"
      ],
      [
        "ck",
        "et"
      ],
      [
        "ig",
        "g"
      ],
      [
        "ĠA",
        "ll"
      ],
      [
        "Ġm",
        "oney"
      ],
      [
        "Ġslow",
        "ly"
      ],
      [
        "Ġbr",
        "an"
      ],
      [
        "Ġs",
        "uch"
      ],
      [
        "Ġmor",
        "al"
      ],
      [
        "Ġg",
        "u"
      ],
      [
        "i",
        "et"
      ],
      [
        "ec",
        "es"
      ],
      [
        "Ġwor",
        "ried"
      ],
      [
        "Ġgr",
        "ate"
      ],
      [
        "Ġtre",
        "asure"
      ],
      [
        "l",
        "ing"
      ],
      [
        "Ġpi",
        "eces"
      ],
      [
        "Ġe",
        "m"
      ],
      [
        "Ġn",
        "ap"
      ],
      [
        "Ġp",
        "en"
      ],
      [
        "Ġbl",
        "ank"
      ],
      [
        "Ġask",
        "s"
      ],
      [
        "g",
        "s"
      ],
      [
        "Ġmagic",
        "al"
      ],
      [
        "av",
        "y"
      ],
      [
        "c",
        "le"
      ],
      [
        "Ġcu",
        "p"
      ],
      [
        "Ġs",
        "ister"
      ],
      [
        "as",
        "ed"
      ],
      [
        "f",
        "ort"
      ],
      [
        "Ġcolor",
        "ful"
      ],
      [
        "Ġpart",
        "y"
      ],
      [
        "z",
        "e"
      ],
      [
        "Ġgrate",
        "ful"
      ],
      [
        "Ġfast",
        "er"
      ],
      [
        "Ġmu",
        "st"
      ],
      [
        "Ġr",
        "ace"
      ],
      [
        "i",
        "re"
      ],
      [
        "Ġpl",
        "ant"
      ],
      [
        "Ġr",
        "iver"
      ],
      [
        "ĠJ",
        "im"
      ],
      [
        "Ġblank",
        "et"
      ],
      [
        "o",
        "l"
      ],
      [
        "Ġwe",
        "ar"
      ],
      [
        "Ġdan",
        "ce"
      ],
      [
        "is",
        "es"
      ],
      [
        "ap",
        "e"
      ],
      [
        "s",
        "w"
      ],
      [
        "Ġqu",
        "iet"
      ],
      [
        "Ġmo",
        "st"
      ],
      [
        "Ġjo",
        "b"
      ],
      [
        "un",
        "ch"
      ],
      [
        "Ġan",
        "sw"
      ],
      [
        "Ġre",
        "ach"
      ],
      [
        "le",
        "ss"
      ],
      [
        "Ġevery",
        "where"
      ],
      [
        "Ġpr",
        "o"
      ],
      [
        "Ġgi",
        "ft"
      ],
      [
        "Ġe",
        "le"
      ],
      [
        "a",
        "pp"
      ],
      [
        "Ġsn",
        "ack"
      ],
      [
        "Ġc",
        "andy"
      ],
      [
        "Ġch",
        "o"
      ],
      [
        "Ġpain",
        "t"
      ],
      [
        "p",
        "h"
      ],
      [
        "u",
        "p"
      ],
      [
        "Ġp",
        "ot"
      ],
      [
        "Ġli",
        "ving"
      ],
      [
        "Ġb",
        "ott"
      ],
      [
        "Ġmon",
        "ster"
      ],
      [
        "Ġhelp",
        "ing"
      ],
      [
        "Ġthink",
        "s"
      ],
      [
        "O",
        "kay"
      ],
      [
        "M",
        "aybe"
      ],
      [
        "Ġsm",
        "art"
      ],
      [
        "Ġjo",
        "in"
      ],
      [
        "ĠF",
        "l"
      ],
      [
        "b",
        "ble"
      ],
      [
        "s",
        "et"
      ],
      [
        "Ġb",
        "ike"
      ],
      [
        "Ġdra",
        "gon"
      ],
      [
        "Ġw",
        "elc"
      ],
      [
        "Ġac",
        "ross"
      ],
      [
        "Ġste",
        "pped"
      ],
      [
        "m",
        "ing"
      ],
      [
        "Ġfar",
        "mer"
      ],
      [
        "Ġj",
        "e"
      ],
      [
        "Ġrun",
        "s"
      ],
      [
        "out",
        "h"
      ],
      [
        "Ġb",
        "ar"
      ],
      [
        "Ġcar",
        "rot"
      ],
      [
        "Ġdoll",
        "s"
      ],
      [
        "Ġat",
        "t"
      ],
      [
        "ĠM",
        "olly"
      ],
      [
        "Ġm",
        "ix"
      ],
      [
        "Ġtra",
        "in"
      ],
      [
        "Ġh",
        "ig"
      ],
      [
        "i",
        "pped"
      ],
      [
        "Ġm",
        "outh"
      ],
      [
        "Ġbl",
        "ack"
      ],
      [
        "id",
        "ent"
      ],
      [
        "Ġwould",
        "n"
      ],
      [
        "Ġprin",
        "cess"
      ],
      [
        "Ġac",
        "c"
      ],
      [
        "e",
        "re"
      ],
      [
        "Ġdanger",
        "ous"
      ],
      [
        "Ġsa",
        "me"
      ],
      [
        "Ġhe",
        "al"
      ],
      [
        "Ġbro",
        "ke"
      ],
      [
        "ĠJ",
        "ill"
      ],
      [
        "Ġw",
        "in"
      ],
      [
        "Ġhe",
        "avy"
      ],
      [
        "e",
        "ared"
      ],
      [
        "Ġdis",
        "app"
      ],
      [
        "Ġsc",
        "ream"
      ],
      [
        "Ġsp",
        "r"
      ],
      [
        "Ġcry",
        "ing"
      ],
      [
        "e",
        "ar"
      ],
      [
        "Ġbelie",
        "ve"
      ],
      [
        "or",
        "ed"
      ],
      [
        "Ġclo",
        "sed"
      ],
      [
        "Ġbow",
        "l"
      ],
      [
        "ĠDad",
        "dy"
      ],
      [
        "S",
        "ure"
      ],
      [
        "Ġs",
        "ign"
      ],
      [
        "Ġst",
        "uck"
      ],
      [
        "Ġbe",
        "e"
      ],
      [
        "Ġdir",
        "ty"
      ],
      [
        "Ġeat",
        "ing"
      ],
      [
        "Ġwor",
        "ds"
      ],
      [
        "Ġco",
        "ll"
      ],
      [
        "it",
        "ing"
      ],
      [
        "Ġst",
        "re"
      ],
      [
        "ve",
        "l"
      ],
      [
        "Ġdo",
        "ctor"
      ],
      [
        "Ġfr",
        "uit"
      ],
      [
        "Ġte",
        "ac"
      ],
      [
        "W",
        "hy"
      ],
      [
        "Ġthre",
        "w"
      ],
      [
        "Ġto",
        "wn"
      ],
      [
        "Ġb",
        "ite"
      ],
      [
        "Ġhig",
        "her"
      ],
      [
        "Ġbut",
        "t"
      ],
      [
        "Ġb",
        "uck"
      ],
      [
        "ch",
        "ool"
      ],
      [
        "d",
        "e"
      ],
      [
        "Ġne",
        "igh"
      ],
      [
        "Ġb",
        "ath"
      ],
      [
        "ĠM",
        "r"
      ],
      [
        "Ġche",
        "ered"
      ],
      [
        "b",
        "r"
      ],
      [
        "Ġhe",
        "art"
      ],
      [
        "or",
        "d"
      ],
      [
        "vent",
        "ually"
      ],
      [
        "Ġneigh",
        "b"
      ],
      [
        "Ġmon",
        "key"
      ],
      [
        "Ġp",
        "ers"
      ],
      [
        "Ġst",
        "and"
      ],
      [
        "Ġs",
        "uddenly"
      ],
      [
        "Ġtw",
        "ins"
      ],
      [
        "Ġm",
        "in"
      ],
      [
        "um",
        "b"
      ],
      [
        "Ġp",
        "ack"
      ],
      [
        "Ġlong",
        "er"
      ],
      [
        "Ġs",
        "chool"
      ],
      [
        "Ġfair",
        "y"
      ],
      [
        "H",
        "i"
      ],
      [
        "Ġacc",
        "ident"
      ],
      [
        "Ġp",
        "ast"
      ],
      [
        "Ġf",
        "ree"
      ],
      [
        "Ġd",
        "ry"
      ],
      [
        "Ġcla",
        "pped"
      ],
      [
        "Ġwith",
        "out"
      ],
      [
        "Ġtow",
        "er"
      ],
      [
        "ck",
        "ed"
      ],
      [
        "i",
        "er"
      ],
      [
        "ask",
        "et"
      ],
      [
        "M",
        "ia"
      ],
      [
        "Ġh",
        "it"
      ],
      [
        "Ġteac",
        "her"
      ],
      [
        "Ġb",
        "asket"
      ],
      [
        "ra",
        "ct"
      ],
      [
        "Ġsm",
        "o"
      ],
      [
        "F",
        "inally"
      ],
      [
        "Ġto",
        "day"
      ],
      [
        "Ġdro",
        "ve"
      ],
      [
        "Ġgent",
        "le"
      ],
      [
        "Ġw",
        "ings"
      ],
      [
        "c",
        "y"
      ],
      [
        "Ġcr",
        "ay"
      ],
      [
        "Ġy",
        "ard"
      ],
      [
        "n",
        "ey"
      ],
      [
        "Ġc",
        "our"
      ],
      [
        "Ġhop",
        "ed"
      ],
      [
        "Ġpus",
        "hed"
      ],
      [
        "Ġj",
        "our"
      ],
      [
        "e",
        "ad"
      ],
      [
        "a",
        "ss"
      ],
      [
        "Ġpo",
        "cket"
      ],
      [
        "Ġch",
        "air"
      ],
      [
        "Ġfor",
        "get"
      ],
      [
        "Ġhapp",
        "en"
      ],
      [
        "Ġl",
        "on"
      ],
      [
        "or",
        "s"
      ],
      [
        "Ġal",
        "ong"
      ],
      [
        "or",
        "row"
      ],
      [
        "Ġg",
        "ames"
      ],
      [
        "Ġin",
        "st"
      ],
      [
        "Ġbr",
        "own"
      ],
      [
        "Ġse",
        "a"
      ],
      [
        "Ġsw",
        "ings"
      ],
      [
        "Ġc",
        "orn"
      ],
      [
        "Ġexpl",
        "ained"
      ],
      [
        "Ġsing",
        "ing"
      ],
      [
        "Ġlon",
        "ely"
      ],
      [
        "Ġsa",
        "ng"
      ],
      [
        "Ġcour",
        "se"
      ],
      [
        "Ġfeel",
        "s"
      ],
      [
        "Ġf",
        "ence"
      ],
      [
        "Ġadventure",
        "s"
      ],
      [
        "Ġpie",
        "ce"
      ],
      [
        "e",
        "k"
      ],
      [
        "Ġup",
        "set"
      ],
      [
        "Ġsec",
        "ret"
      ],
      [
        "y",
        "ard"
      ],
      [
        "Ġmo",
        "ved"
      ],
      [
        "Ġyou",
        "ng"
      ],
      [
        "Ġback",
        "yard"
      ],
      [
        "m",
        "ent"
      ],
      [
        "Ġbr",
        "ing"
      ],
      [
        "Ġsw",
        "am"
      ],
      [
        "ount",
        "ain"
      ],
      [
        "Ġexpl",
        "oring"
      ],
      [
        "Ġsho",
        "es"
      ],
      [
        "is",
        "sed"
      ],
      [
        "Ġstor",
        "ies"
      ],
      [
        "Ġtr",
        "ou"
      ],
      [
        "Ġo",
        "wl"
      ],
      [
        "Ġwelc",
        "ome"
      ],
      [
        "w",
        "ard"
      ],
      [
        "i",
        "ble"
      ],
      [
        "ĠEm",
        "ma"
      ],
      [
        "Ġpl",
        "ac"
      ],
      [
        "Ġta",
        "king"
      ],
      [
        "?",
        "âĢĿ"
      ],
      [
        "Ġapp",
        "le"
      ],
      [
        "Ġno",
        "ises"
      ],
      [
        "Ġd",
        "ist"
      ],
      [
        "ph",
        "ant"
      ],
      [
        "Ġt",
        "iny"
      ],
      [
        "Ġsee",
        "med"
      ],
      [
        "Ġthr",
        "ow"
      ],
      [
        "Ġl",
        "ate"
      ],
      [
        "itt",
        "ing"
      ],
      [
        "Ġrock",
        "s"
      ],
      [
        "ou",
        "n"
      ],
      [
        "Ġdro",
        "pped"
      ],
      [
        "Ġex",
        "p"
      ],
      [
        "Ġturn",
        "s"
      ],
      [
        "h",
        "o"
      ],
      [
        "Ġw",
        "he"
      ],
      [
        "fu",
        "sed"
      ],
      [
        "Ġele",
        "phant"
      ],
      [
        "Ġnear",
        "by"
      ],
      [
        "Ġst",
        "ars"
      ],
      [
        "Ġbuck",
        "et"
      ],
      [
        "Ġsh",
        "op"
      ],
      [
        "Ġc",
        "aught"
      ],
      [
        "c",
        "hes"
      ],
      [
        "Ġl",
        "unch"
      ],
      [
        "Ġj",
        "ar"
      ],
      [
        "Ġ",
        "ve"
      ],
      [
        "Ġbel",
        "ong"
      ],
      [
        "Ġ",
        "es"
      ],
      [
        "Ġs",
        "oup"
      ],
      [
        "Ġw",
        "ise"
      ],
      [
        "Ġrel",
        "ie"
      ],
      [
        "ĠM",
        "ary"
      ],
      [
        "Ġsh",
        "ook"
      ],
      [
        "Ġwo",
        "ke"
      ],
      [
        "Ġc",
        "a"
      ],
      [
        "bb",
        "y"
      ],
      [
        "Ġne",
        "ck"
      ],
      [
        "Ġdr",
        "ink"
      ],
      [
        "Ġ",
        "3"
      ],
      [
        "Ġth",
        "ough"
      ],
      [
        "ĠFl",
        "uffy"
      ],
      [
        "b",
        "ow"
      ],
      [
        "Ġn",
        "aught"
      ],
      [
        "us",
        "h"
      ],
      [
        "Ġwe",
        "ll"
      ],
      [
        "Ġnaught",
        "y"
      ],
      [
        "Ġye",
        "ar"
      ],
      [
        "Ġma",
        "il"
      ],
      [
        "Ġb",
        "en"
      ],
      [
        "ock",
        "ed"
      ],
      [
        "Ġstre",
        "et"
      ],
      [
        "ion",
        "s"
      ],
      [
        "ll",
        "o"
      ],
      [
        "Ġs",
        "u"
      ],
      [
        "Ġw",
        "ish"
      ],
      [
        "Ġhug",
        "s"
      ],
      [
        "Ġor",
        "ange"
      ],
      [
        "Ġsh",
        "ap"
      ],
      [
        "Ġp",
        "ig"
      ],
      [
        "s",
        "y"
      ],
      [
        "Ġin",
        "v"
      ],
      [
        "c",
        "es"
      ],
      [
        "Ġbus",
        "y"
      ],
      [
        "Ġd",
        "es"
      ],
      [
        "Ġp",
        "h"
      ],
      [
        "c",
        "ing"
      ],
      [
        "Ġm",
        "iss"
      ],
      [
        "un",
        "g"
      ],
      [
        "aught",
        "er"
      ],
      [
        "w",
        "eet"
      ],
      [
        "ad",
        "ow"
      ],
      [
        "Ġb",
        "at"
      ],
      [
        "Ġp",
        "urp"
      ],
      [
        "Ġke",
        "y"
      ],
      [
        "in",
        "ing"
      ],
      [
        "Ġst",
        "ar"
      ],
      [
        "Ġc",
        "ou"
      ],
      [
        "t",
        "o"
      ],
      [
        "Ġhug",
        "e"
      ],
      [
        "Ġju",
        "ice"
      ],
      [
        "Ġrain",
        "bow"
      ],
      [
        "L",
        "ila"
      ],
      [
        "Ġto",
        "m"
      ],
      [
        "our",
        "s"
      ],
      [
        "Ġfore",
        "ver"
      ],
      [
        "A",
        "nd"
      ],
      [
        "it",
        "y"
      ],
      [
        "Ġc",
        "ow"
      ],
      [
        "ĠIn",
        "side"
      ],
      [
        "ver",
        "ed"
      ],
      [
        "ĠF",
        "inally"
      ],
      [
        "Ġo",
        "b"
      ],
      [
        "co",
        "l"
      ],
      [
        "Ġst",
        "u"
      ],
      [
        "D",
        "o"
      ],
      [
        "Ġfar",
        "m"
      ],
      [
        "Ġbran",
        "ch"
      ],
      [
        "sh",
        "ine"
      ],
      [
        "Ġpurp",
        "le"
      ],
      [
        "Ġn",
        "est"
      ],
      [
        "ir",
        "t"
      ],
      [
        "id",
        "ge"
      ],
      [
        "Ġarm",
        "s"
      ],
      [
        "Ġf",
        "it"
      ],
      [
        "Ġd",
        "aughter"
      ],
      [
        "Ġa",
        "f"
      ],
      [
        "Ġshap",
        "es"
      ],
      [
        "Ġm",
        "ark"
      ],
      [
        "le",
        "t"
      ],
      [
        "itt",
        "ens"
      ],
      [
        "ĠGra",
        "ndma"
      ],
      [
        "a",
        "il"
      ],
      [
        "Ġno",
        "se"
      ],
      [
        "Ġrelie",
        "ved"
      ],
      [
        "Ġs",
        "ick"
      ],
      [
        "Ġb",
        "oun"
      ],
      [
        "Ġpe",
        "ace"
      ],
      [
        "Ġcar",
        "ry"
      ],
      [
        "Ġr",
        "ound"
      ],
      [
        "Ġswim",
        "ming"
      ],
      [
        "Ġnot",
        "hing"
      ],
      [
        "Ġre",
        "sp"
      ],
      [
        "Ġsun",
        "shine"
      ],
      [
        "c",
        "er"
      ],
      [
        "Ġli",
        "fe"
      ],
      [
        "Ġwonder",
        "ed"
      ],
      [
        "Ġc",
        "ir"
      ],
      [
        "pp",
        "er"
      ],
      [
        "Ġs",
        "itting"
      ],
      [
        "Ġre",
        "t"
      ],
      [
        "Ġexc",
        "iting"
      ],
      [
        "Ġk",
        "ite"
      ],
      [
        "Ġwh",
        "ist"
      ],
      [
        "Ġon",
        "to"
      ],
      [
        "Ġk",
        "ing"
      ],
      [
        "Ġcreat",
        "ure"
      ],
      [
        "Ġm",
        "ine"
      ],
      [
        "Ġdis",
        "co"
      ],
      [
        "Ġpat",
        "ient"
      ],
      [
        "Ġm",
        "il"
      ],
      [
        "es",
        "e"
      ],
      [
        "ra",
        "id"
      ],
      [
        "ĠTh",
        "ank"
      ],
      [
        "Ġjour",
        "ney"
      ],
      [
        "it",
        "ch"
      ],
      [
        "Ġday",
        "s"
      ],
      [
        "o",
        "se"
      ],
      [
        "Ġl",
        "etter"
      ],
      [
        "Ġaf",
        "raid"
      ],
      [
        "Ġ",
        "O"
      ],
      [
        "Ġhe",
        "llo"
      ],
      [
        "Ġaccident",
        "ally"
      ],
      [
        "g",
        "g"
      ],
      [
        "Ġm",
        "ad"
      ],
      [
        "ĠSam",
        "my"
      ],
      [
        "ĠSo",
        "on"
      ],
      [
        "Ġret",
        "urn"
      ],
      [
        "u",
        "ched"
      ],
      [
        "Ġto",
        "uched"
      ],
      [
        "th",
        "day"
      ],
      [
        "st",
        "ing"
      ],
      [
        "Ġsp",
        "oon"
      ],
      [
        "f",
        "ish"
      ],
      [
        "Ġlaug",
        "hing"
      ],
      [
        "Ġp",
        "ower"
      ],
      [
        "Ġf",
        "an"
      ],
      [
        "Ġdri",
        "ver"
      ],
      [
        "Ġcut",
        "e"
      ],
      [
        "Ġint",
        "ere"
      ],
      [
        "itt",
        "en"
      ],
      [
        "ĠM",
        "ama"
      ],
      [
        "Ġcoll",
        "ect"
      ],
      [
        "s",
        "c"
      ],
      [
        "Ġsound",
        "s"
      ],
      [
        "n",
        "ess"
      ],
      [
        "Ġta",
        "kes"
      ],
      [
        "Ġhold",
        "ing"
      ],
      [
        "L",
        "ater"
      ],
      [
        "Ġc",
        "ave"
      ],
      [
        "Ġli",
        "ft"
      ],
      [
        "Ġinst",
        "ead"
      ],
      [
        "Ġcom",
        "fort"
      ],
      [
        "Ġsun",
        "ny"
      ],
      [
        "Ġshe",
        "ll"
      ],
      [
        "Ġg",
        "igg"
      ],
      [
        "Ġb",
        "and"
      ],
      [
        "Ġin",
        "c"
      ],
      [
        "Ġco",
        "at"
      ],
      [
        "Ġco",
        "zy"
      ],
      [
        "Ġa",
        "ct"
      ],
      [
        "bo",
        "ard"
      ],
      [
        "Ġw",
        "ra"
      ],
      [
        "Ġcom",
        "es"
      ],
      [
        "Ġsear",
        "ched"
      ],
      [
        "Ġe",
        "ar"
      ],
      [
        "Ġc",
        "e"
      ],
      [
        "Ġben",
        "ch"
      ],
      [
        "Ġb",
        "ought"
      ],
      [
        "Ġf",
        "ing"
      ],
      [
        "Ġbir",
        "thday"
      ],
      [
        "Ġsmil",
        "ing"
      ],
      [
        "t",
        "en"
      ],
      [
        "Ġh",
        "or"
      ],
      [
        "Ġg",
        "ather"
      ],
      [
        "Ġim",
        "ag"
      ],
      [
        "p",
        "ed"
      ],
      [
        "Ġe",
        "as"
      ],
      [
        "Ġl",
        "ucky"
      ],
      [
        "om",
        "an"
      ],
      [
        "Ġstor",
        "m"
      ],
      [
        "o",
        "g"
      ],
      [
        "Ġw",
        "oman"
      ],
      [
        "Ġp",
        "udd"
      ],
      [
        "Ġmil",
        "k"
      ],
      [
        "r",
        "ound"
      ],
      [
        "Ġpoin",
        "ted"
      ],
      [
        "Ġche",
        "ese"
      ],
      [
        "Ġgra",
        "b"
      ],
      [
        "Ġpre",
        "s"
      ],
      [
        "Ġm",
        "ist"
      ],
      [
        "Ġsp",
        "o"
      ],
      [
        "Ġwatch",
        "ing"
      ],
      [
        "iz",
        "e"
      ],
      [
        "Ġprom",
        "ise"
      ],
      [
        "Ġany",
        "one"
      ],
      [
        "al",
        "m"
      ],
      [
        "b",
        "all"
      ],
      [
        "B",
        "ob"
      ],
      [
        "Ġw",
        "ide"
      ],
      [
        "Ġsand",
        "w"
      ],
      [
        "Ġtast",
        "y"
      ],
      [
        "Ġsp",
        "in"
      ],
      [
        "u",
        "nt"
      ],
      [
        "O",
        "f"
      ],
      [
        "Ġtal",
        "ked"
      ],
      [
        "Ġsp",
        "id"
      ],
      [
        "ĠT",
        "weet"
      ],
      [
        "o",
        "ve"
      ],
      [
        "t",
        "s"
      ],
      [
        "g",
        "ged"
      ],
      [
        "ble",
        "m"
      ],
      [
        "Ġheal",
        "thy"
      ],
      [
        "Ġ",
        "ent"
      ],
      [
        "Ġk",
        "ick"
      ],
      [
        "Ġpro",
        "blem"
      ],
      [
        "ar",
        "p"
      ],
      [
        "et",
        "h"
      ],
      [
        "Ġhop",
        "e"
      ],
      [
        "Ġl",
        "ater"
      ],
      [
        "Ġsh",
        "ining"
      ],
      [
        "Ġtrou",
        "ble"
      ],
      [
        "Ġz",
        "oom"
      ],
      [
        "Ġs",
        "uc"
      ],
      [
        "Ġbre",
        "ad"
      ],
      [
        "He",
        "y"
      ],
      [
        "Ġsh",
        "arp"
      ],
      [
        "Ġro",
        "ad"
      ],
      [
        "Tom",
        "my"
      ],
      [
        "Ġad",
        "m"
      ],
      [
        "Ġpers",
        "on"
      ],
      [
        "Ġsa",
        "f"
      ],
      [
        "u",
        "b"
      ],
      [
        "Ġbus",
        "h"
      ],
      [
        "a",
        "ur"
      ],
      [
        "Ġbott",
        "le"
      ],
      [
        "ow",
        "ed"
      ],
      [
        "Ġbutt",
        "on"
      ],
      [
        "Ġintere",
        "sting"
      ],
      [
        "Ġr",
        "ope"
      ],
      [
        "Ġmat",
        "ter"
      ],
      [
        "Ġpres",
        "ent"
      ],
      [
        "Ġcloud",
        "s"
      ],
      [
        "Ġlove",
        "ly"
      ],
      [
        "el",
        "s"
      ],
      [
        "Ġp",
        "ract"
      ],
      [
        "Ġv",
        "ill"
      ],
      [
        "Ġwh",
        "ich"
      ],
      [
        "ĠW",
        "ith"
      ],
      [
        "Ġwho",
        "le"
      ],
      [
        "ĠJim",
        "my"
      ],
      [
        "Ġs",
        "ur"
      ],
      [
        "Ġpl",
        "ane"
      ],
      [
        "Ġmy",
        "ster"
      ],
      [
        "Ġgi",
        "ves"
      ],
      [
        "Ġh",
        "oney"
      ],
      [
        "Ġcle",
        "ver"
      ],
      [
        "Ġqu",
        "est"
      ],
      [
        "Ġche",
        "er"
      ],
      [
        "ĠC",
        "ome"
      ],
      [
        "Ġspot",
        "ted"
      ],
      [
        "on",
        "t"
      ],
      [
        "ll",
        "a"
      ],
      [
        "Ġsmell",
        "ed"
      ],
      [
        "Ġa",
        "p"
      ],
      [
        "Ġduck",
        "s"
      ],
      [
        "Ġme",
        "et"
      ],
      [
        "nd",
        "p"
      ],
      [
        "Ġtast",
        "ed"
      ],
      [
        "Ġp",
        "ar"
      ],
      [
        "Ġapp",
        "eared"
      ],
      [
        "Ġapp",
        "les"
      ],
      [
        "Ġpr",
        "ot"
      ],
      [
        "Ġor",
        "gan"
      ],
      [
        "Ġp",
        "ath"
      ],
      [
        "ce",
        "an"
      ],
      [
        "Ġo",
        "cean"
      ],
      [
        "ep",
        "end"
      ],
      [
        "Ġroll",
        "ed"
      ],
      [
        "Ġfr",
        "ont"
      ],
      [
        "Ġgi",
        "ant"
      ],
      [
        "Ġneighb",
        "or"
      ],
      [
        "Ġprot",
        "ect"
      ],
      [
        "Ġk",
        "iss"
      ],
      [
        "Ġhor",
        "se"
      ],
      [
        "Ġh",
        "on"
      ],
      [
        "a",
        "le"
      ],
      [
        "Ġz",
        "oo"
      ],
      [
        "Ġdan",
        "ced"
      ],
      [
        "Ġp",
        "op"
      ],
      [
        "o",
        "nd"
      ],
      [
        "Ġfe",
        "ather"
      ],
      [
        "Ġl",
        "ay"
      ],
      [
        "is",
        "a"
      ],
      [
        "oo",
        "se"
      ],
      [
        "E",
        "very"
      ],
      [
        "Ġp",
        "ile"
      ],
      [
        "ch",
        "ing"
      ],
      [
        "L",
        "ucy"
      ],
      [
        "Ġcray",
        "ons"
      ],
      [
        "er",
        "ly"
      ],
      [
        "Ġth",
        "in"
      ],
      [
        "Ġtri",
        "p"
      ],
      [
        "Ġe",
        "ag"
      ],
      [
        "e",
        "en"
      ],
      [
        "Ġse",
        "at"
      ],
      [
        "Ġsnow",
        "man"
      ],
      [
        "am",
        "ed"
      ],
      [
        "Ġput",
        "s"
      ],
      [
        "Ġas",
        "leep"
      ],
      [
        "Ġplac",
        "es"
      ],
      [
        "e",
        "b"
      ],
      [
        "M",
        "olly"
      ],
      [
        "Ġmin",
        "ut"
      ],
      [
        "ul",
        "ar"
      ],
      [
        "Ġp",
        "ill"
      ],
      [
        "Ġt",
        "un"
      ],
      [
        "Ġsh",
        "r"
      ],
      [
        "Ġwe",
        "aring"
      ],
      [
        "Ġm",
        "ach"
      ],
      [
        "n",
        "ic"
      ],
      [
        "I",
        "n"
      ],
      [
        "Ġd",
        "i"
      ],
      [
        "Ġsp",
        "ent"
      ],
      [
        "Ġpic",
        "nic"
      ],
      [
        "itt",
        "y"
      ],
      [
        "G",
        "ood"
      ],
      [
        "Ġsa",
        "ck"
      ],
      [
        "Ġimp",
        "re"
      ],
      [
        "Ġw",
        "ild"
      ],
      [
        "iz",
        "z"
      ],
      [
        "Ġspl",
        "as"
      ],
      [
        "Ġansw",
        "er"
      ],
      [
        "Ġem",
        "b"
      ],
      [
        "Ġmu",
        "d"
      ],
      [
        "Ġfo",
        "ot"
      ],
      [
        "J",
        "im"
      ],
      [
        "Ġpu",
        "zz"
      ],
      [
        "J",
        "ust"
      ],
      [
        "Ġv",
        "al"
      ],
      [
        "Ġspid",
        "er"
      ],
      [
        "Ġlo",
        "ves"
      ],
      [
        "ĠM",
        "ittens"
      ],
      [
        "Ġsn",
        "ake"
      ],
      [
        "Ġcorn",
        "er"
      ],
      [
        "l",
        "a"
      ],
      [
        "er",
        "t"
      ],
      [
        "Ġm",
        "ed"
      ],
      [
        "Ġsl",
        "id"
      ],
      [
        "Ġscream",
        "ed"
      ],
      [
        "ndp",
        "a"
      ],
      [
        "n",
        "n"
      ],
      [
        "Ġbuild",
        "ing"
      ],
      [
        "h",
        "ile"
      ],
      [
        "Ġm",
        "ind"
      ],
      [
        "ar",
        "ge"
      ],
      [
        "Ġsu",
        "pp"
      ],
      [
        "Ġdir",
        "t"
      ],
      [
        "Ġgent",
        "ly"
      ],
      [
        "Ġresp",
        "ect"
      ],
      [
        "Ġsa",
        "l"
      ],
      [
        "ck",
        "s"
      ],
      [
        "um",
        "ber"
      ],
      [
        "C",
        "ome"
      ],
      [
        "on",
        "es"
      ],
      [
        "omet",
        "imes"
      ],
      [
        "Ġe",
        "ventually"
      ],
      [
        "Ġdel",
        "ight"
      ],
      [
        "Ġo",
        "ven"
      ],
      [
        "Ġc",
        "art"
      ],
      [
        "Ġli",
        "ve"
      ],
      [
        "Ġcon",
        "fused"
      ],
      [
        "ĠEm",
        "ily"
      ],
      [
        "Ġfur",
        "ry"
      ],
      [
        "Ġt",
        "id"
      ],
      [
        "Ġm",
        "ountain"
      ],
      [
        "Ġfe",
        "et"
      ],
      [
        "Ġemb",
        "ar"
      ],
      [
        "Ġrem",
        "ind"
      ],
      [
        "Ġpa",
        "ss"
      ],
      [
        "Ġb",
        "ark"
      ],
      [
        "Ġsh",
        "irt"
      ],
      [
        "Ġ",
        "ign"
      ],
      [
        "le",
        "x"
      ],
      [
        "Ġembar",
        "ra"
      ],
      [
        "Ġl",
        "ad"
      ],
      [
        "Ġwhen",
        "ever"
      ],
      [
        "Ġhelp",
        "ful"
      ],
      [
        "S",
        "t"
      ],
      [
        "Ġtal",
        "king"
      ],
      [
        "M",
        "um"
      ],
      [
        "Ġs",
        "er"
      ],
      [
        "Ġte",
        "ach"
      ],
      [
        "Ġwr",
        "ite"
      ],
      [
        "Ġwor",
        "m"
      ],
      [
        "Ġla",
        "st"
      ],
      [
        "Ġre",
        "c"
      ],
      [
        "Ġc",
        "ard"
      ],
      [
        "S",
        "oon"
      ],
      [
        "Ġbu",
        "bble"
      ],
      [
        "Ġwa",
        "ve"
      ],
      [
        "un",
        "k"
      ],
      [
        "Ġfa",
        "ces"
      ],
      [
        "Ġcou",
        "ch"
      ],
      [
        "Ġb",
        "an"
      ],
      [
        "Ġco",
        "in"
      ],
      [
        "Ġch",
        "ick"
      ],
      [
        "Ġb",
        "lew"
      ],
      [
        "Ġph",
        "one"
      ],
      [
        "Ġcook",
        "ie"
      ],
      [
        "Ġbe",
        "ll"
      ],
      [
        "if",
        "e"
      ],
      [
        "Ġp",
        "an"
      ],
      [
        "Ġcol",
        "our"
      ],
      [
        "ĠS",
        "t"
      ],
      [
        "al",
        "s"
      ],
      [
        "Ġsmo",
        "oth"
      ],
      [
        "m",
        "o"
      ],
      [
        "Ġlad",
        "der"
      ],
      [
        "Ġgo",
        "es"
      ],
      [
        "re",
        "ad"
      ],
      [
        "Ġpretend",
        "ed"
      ],
      [
        "Ġl",
        "arge"
      ],
      [
        "Ġpa",
        "w"
      ],
      [
        "Ġsh",
        "y"
      ],
      [
        "ĠEvery",
        "where"
      ],
      [
        "Ġtoo",
        "l"
      ],
      [
        "Ġvill",
        "age"
      ],
      [
        "ĠG",
        "o"
      ],
      [
        "Ġc",
        "alm"
      ],
      [
        "Ġro",
        "b"
      ],
      [
        "Ġr",
        "ing"
      ],
      [
        "Ġst",
        "ret"
      ],
      [
        "Ġdri",
        "ve"
      ],
      [
        "Ġa",
        "nt"
      ],
      [
        "le",
        "br"
      ],
      [
        "Ġsp",
        "read"
      ],
      [
        "Ġas",
        "h"
      ],
      [
        "Ġwait",
        "ing"
      ],
      [
        "ĠJen",
        "ny"
      ],
      [
        "Ġce",
        "lebr"
      ],
      [
        "Ġhid",
        "ing"
      ],
      [
        "Ġc",
        "oo"
      ],
      [
        "Ġforg",
        "ive"
      ],
      [
        "Ġp",
        "our"
      ],
      [
        "Ġp",
        "ool"
      ],
      [
        "Ġp",
        "le"
      ],
      [
        "Ġst",
        "ra"
      ],
      [
        "Ġspr",
        "ay"
      ],
      [
        "Ġmach",
        "ine"
      ],
      [
        "Ġtreat",
        "s"
      ],
      [
        "Ġre",
        "p"
      ],
      [
        "ĠC",
        "h"
      ],
      [
        "Ġtri",
        "es"
      ],
      [
        "Ġs",
        "el"
      ],
      [
        "Ġfin",
        "ish"
      ],
      [
        "Ġcho",
        "col"
      ],
      [
        "Ġkne",
        "e"
      ],
      [
        "Ġtid",
        "y"
      ],
      [
        "at",
        "o"
      ],
      [
        "Ġtom",
        "orrow"
      ],
      [
        "Ġfix",
        "ed"
      ],
      [
        "at",
        "or"
      ],
      [
        "Ġban",
        "an"
      ],
      [
        "Ġh",
        "um"
      ],
      [
        "Ġso",
        "l"
      ],
      [
        "Ġfight",
        "ing"
      ],
      [
        "Ġpus",
        "h"
      ],
      [
        "Ġru",
        "de"
      ],
      [
        "ĠH",
        "ow"
      ],
      [
        "Ġch",
        "ased"
      ],
      [
        "Ġfo",
        "ld"
      ],
      [
        "ĠJ",
        "ake"
      ],
      [
        "Ġembarra",
        "ssed"
      ],
      [
        "o",
        "ld"
      ],
      [
        "Ġte",
        "eth"
      ],
      [
        "Ġsp",
        "e"
      ],
      [
        "ur",
        "se"
      ],
      [
        "Ġem",
        "p"
      ],
      [
        "ung",
        "le"
      ],
      [
        "Ġfor",
        "ward"
      ],
      [
        "op",
        "h"
      ],
      [
        "Ġg",
        "en"
      ],
      [
        "ig",
        "hed"
      ],
      [
        "Ġtight",
        "ly"
      ],
      [
        "Ġrob",
        "ot"
      ],
      [
        "Ġemp",
        "ty"
      ],
      [
        "Ġsong",
        "s"
      ],
      [
        "ĠA",
        "l"
      ],
      [
        "Ġcarrot",
        "s"
      ],
      [
        "Ġpeace",
        "ful"
      ],
      [
        "Ġbar",
        "ked"
      ],
      [
        "Ġj",
        "ungle"
      ],
      [
        "Ġk",
        "itten"
      ],
      [
        "Ġpudd",
        "le"
      ],
      [
        "ig",
        "er"
      ],
      [
        "Ġw",
        "ore"
      ],
      [
        "Ġcl",
        "oth"
      ],
      [
        "in",
        "ted"
      ],
      [
        "Ġst",
        "ep"
      ],
      [
        "Ġst",
        "ir"
      ],
      [
        "au",
        "l"
      ],
      [
        "Ġbug",
        "s"
      ],
      [
        "ĠJ",
        "ust"
      ],
      [
        "Ġcan",
        "n"
      ],
      [
        "Ġlea",
        "f"
      ],
      [
        "Ġn",
        "et"
      ],
      [
        "ul",
        "t"
      ],
      [
        "Ġtast",
        "e"
      ],
      [
        "Ġgre",
        "w"
      ],
      [
        "Ġsel",
        "fish"
      ],
      [
        "get",
        "able"
      ],
      [
        "Ġstr",
        "ing"
      ],
      [
        "ar",
        "m"
      ],
      [
        "Ġsa",
        "ve"
      ],
      [
        "Ġme",
        "adow"
      ],
      [
        "Ġwhist",
        "le"
      ],
      [
        "Ġcreat",
        "ive"
      ],
      [
        "Ġve",
        "getable"
      ],
      [
        "Ġcann",
        "ot"
      ],
      [
        "Ġtr",
        "ust"
      ],
      [
        "Ġrock",
        "et"
      ],
      [
        "Ġchocol",
        "ate"
      ],
      [
        "Ġst",
        "one"
      ],
      [
        "Ġw",
        "ip"
      ],
      [
        "Ġte",
        "a"
      ],
      [
        "Ġspark",
        "ly"
      ],
      [
        "M",
        "y"
      ],
      [
        "Ġd",
        "eter"
      ],
      [
        "Ġ",
        "'"
      ],
      [
        "bo",
        "x"
      ],
      [
        "d",
        "en"
      ],
      [
        "g",
        "round"
      ],
      [
        "Ġdeter",
        "m"
      ],
      [
        "ump",
        "y"
      ],
      [
        "d",
        "ge"
      ],
      [
        "Ġdisapp",
        "o"
      ],
      [
        "Ġsp",
        "icy"
      ],
      [
        "Ġkn",
        "ocked"
      ],
      [
        "Ġshe",
        "ep"
      ],
      [
        "Ġcra",
        "b"
      ],
      [
        "ir",
        "d"
      ],
      [
        "ĠS",
        "ometimes"
      ],
      [
        "N",
        "ow"
      ],
      [
        "Ġme",
        "ant"
      ],
      [
        "Ġpl",
        "ate"
      ],
      [
        "Ġs",
        "our"
      ],
      [
        "Ġwas",
        "h"
      ],
      [
        "Ġjump",
        "ing"
      ],
      [
        "Ġh",
        "ours"
      ],
      [
        "P",
        "lease"
      ],
      [
        "n",
        "ed"
      ],
      [
        "Ġ",
        "On"
      ],
      [
        "mo",
        "st"
      ],
      [
        "Ġn",
        "ut"
      ],
      [
        "Ġdec",
        "or"
      ],
      [
        "Ġknow",
        "ing"
      ],
      [
        "ĠM",
        "um"
      ],
      [
        "Ġst",
        "ood"
      ],
      [
        "Ġland",
        "ed"
      ],
      [
        "d",
        "le"
      ],
      [
        "Ġle",
        "m"
      ],
      [
        "D",
        "ad"
      ],
      [
        "Ġl",
        "ine"
      ],
      [
        "ell",
        "y"
      ],
      [
        "Ġneck",
        "l"
      ],
      [
        "Ġhid",
        "den"
      ],
      [
        "Ġshe",
        "lf"
      ],
      [
        "Ġp",
        "in"
      ],
      [
        "an",
        "o"
      ],
      [
        "Ġm",
        "issed"
      ],
      [
        "Ġle",
        "gs"
      ],
      [
        "ust",
        "r"
      ],
      [
        "Ġfe",
        "ar"
      ],
      [
        "T",
        "o"
      ],
      [
        "Ġal",
        "most"
      ],
      [
        "ĠL",
        "isa"
      ],
      [
        "Ġsh",
        "aring"
      ],
      [
        "Ġgen",
        "er"
      ],
      [
        "Ġwh",
        "is"
      ],
      [
        "y",
        "ing"
      ],
      [
        "Ġbre",
        "ath"
      ],
      [
        "Ġhon",
        "est"
      ],
      [
        "'",
        "d"
      ],
      [
        "Ġmo",
        "on"
      ],
      [
        "air",
        "s"
      ],
      [
        "Ġa",
        "v"
      ],
      [
        "Ġdisappo",
        "inted"
      ],
      [
        "a",
        "king"
      ],
      [
        "Ġm",
        "aybe"
      ],
      [
        "Ġcar",
        "ried"
      ],
      [
        "Ġprin",
        "ce"
      ],
      [
        "M",
        "ama"
      ],
      [
        "Ġp",
        "ri"
      ],
      [
        "ĠP",
        "lease"
      ],
      [
        "ĠE",
        "ven"
      ],
      [
        "i",
        "an"
      ],
      [
        "Ġthank",
        "ful"
      ],
      [
        "Ġsnack",
        "s"
      ],
      [
        "Ġp",
        "izz"
      ],
      [
        "ĠS",
        "ome"
      ],
      [
        "Ġsh",
        "ore"
      ],
      [
        "Ġgo",
        "ld"
      ],
      [
        "g",
        "ly"
      ],
      [
        "k",
        "in"
      ],
      [
        "Ġg",
        "un"
      ],
      [
        "Ġfr",
        "ustr"
      ],
      [
        "Ġspl",
        "ash"
      ],
      [
        "ĠT",
        "V"
      ],
      [
        "Ġb",
        "al"
      ],
      [
        "Ġu",
        "gly"
      ],
      [
        "Ġsc",
        "re"
      ],
      [
        "Ġmess",
        "y"
      ],
      [
        "Ġreturn",
        "ed"
      ],
      [
        "er",
        "p"
      ],
      [
        "Ġc",
        "ro"
      ],
      [
        "Ġgr",
        "oup"
      ],
      [
        "Ġunderst",
        "ood"
      ],
      [
        "ĠL",
        "e"
      ],
      [
        "Ġplant",
        "s"
      ],
      [
        "Ġhe",
        "ars"
      ],
      [
        "Ġmyster",
        "ious"
      ],
      [
        "Ġfan",
        "cy"
      ],
      [
        "Ġsc",
        "ar"
      ],
      [
        "Ġsuc",
        "cess"
      ],
      [
        "on",
        "y"
      ],
      [
        "Ġgr",
        "ay"
      ],
      [
        "ĠTo",
        "gether"
      ],
      [
        "er",
        "ry"
      ],
      [
        "v",
        "ous"
      ],
      [
        "Ġtell",
        "s"
      ],
      [
        "Ġp",
        "ay"
      ],
      [
        "Ġwhis",
        "p"
      ],
      [
        "Ġbed",
        "room"
      ],
      [
        "Ġta",
        "ught"
      ],
      [
        "l",
        "ower"
      ],
      [
        "Ġfrustr",
        "ated"
      ],
      [
        "Ġstand",
        "ing"
      ],
      [
        "Ġse",
        "ed"
      ],
      [
        "Ġwo",
        "lf"
      ],
      [
        "B",
        "e"
      ],
      [
        "ĠThe",
        "ir"
      ],
      [
        "Ġf",
        "ig"
      ],
      [
        "Ġneckl",
        "ace"
      ],
      [
        "Ġbl",
        "ow"
      ],
      [
        "Ġje",
        "w"
      ],
      [
        "Ġgather",
        "ed"
      ],
      [
        "Ġt",
        "est"
      ],
      [
        "it",
        "al"
      ],
      [
        "er",
        "a"
      ],
      [
        "Ġsandw",
        "ich"
      ],
      [
        "o",
        "bby"
      ],
      [
        "Ġstick",
        "s"
      ],
      [
        "Ġsleep",
        "y"
      ],
      [
        "or",
        "ry"
      ],
      [
        "Ġpizz",
        "a"
      ],
      [
        "Ġv",
        "an"
      ],
      [
        "Ġyell",
        "ed"
      ],
      [
        "Ġcir",
        "c"
      ],
      [
        "Ġm",
        "ot"
      ],
      [
        "ĠT",
        "eddy"
      ],
      [
        "Ġpill",
        "ow"
      ],
      [
        "Ġdre",
        "w"
      ],
      [
        "Ġspo",
        "il"
      ],
      [
        "Ġtw",
        "irl"
      ],
      [
        "Ġpower",
        "ful"
      ],
      [
        "Ġho",
        "sp"
      ],
      [
        "Ġeas",
        "y"
      ],
      [
        "Ġgener",
        "ous"
      ],
      [
        "Ġwa",
        "ves"
      ],
      [
        "Ġhosp",
        "ital"
      ],
      [
        "Sara",
        "h"
      ],
      [
        "Ġdeterm",
        "ined"
      ],
      [
        "ĠA",
        "nn"
      ],
      [
        "Ġpo",
        "or"
      ],
      [
        "h",
        "in"
      ],
      [
        "Ġg",
        "as"
      ],
      [
        "Ġn",
        "er"
      ],
      [
        "ll",
        "ie"
      ],
      [
        "us",
        "ie"
      ],
      [
        "Ġcomfort",
        "able"
      ],
      [
        "Ġash",
        "amed"
      ],
      [
        "itt",
        "er"
      ],
      [
        "Ġpa",
        "ssed"
      ],
      [
        "s",
        "ist"
      ],
      [
        "u",
        "al"
      ],
      [
        "ĠP",
        "eter"
      ],
      [
        "s",
        "er"
      ],
      [
        "Ġs",
        "na"
      ]
    ]
  }
}